{"version":"1.0","truncation":{"direction":"Right","max_length":128,"strategy":"LongestFirst","stride":0},"padding":{"strategy":"BatchLongest","direction":"Right","pad_to_multiple_of":null,"pad_id":0,"pad_type_id":0,"pad_token":"[PAD]"},"added_tokens":[{"id":0,"content":"[PAD]","single_word":true,"lstrip":true,"rstrip":true,"normalized":true,"special":true},{"id":1,"content":"[UNK]","single_word":false,"lstrip":false,"rstrip":false,"normalized":false,"special":true}],"normalizer":{"type":"BertNormalizer","clean_text":true,"handle_chinese_chars":true,"strip_accents":null,"lowercase":false},"pre_tokenizer":{"type":"BertPreTokenizer"},"post_processor":null,"decoder":{"type":"WordPiece","prefix":"##","cleanup":true},"model":{"type":"WordPiece","unk_token":"[UNK]","continuing_subword_prefix":"##","max_input_chars_per_word":100,"vocab":{"[PAD]":0,"[UNK]":1,"!":2,"\"":3,"#":4,"$":5,"%":6,"&":7,"'":8,"(":9,")":10,"*":11,"+":12,",":13,"-":14,".":15,"/":16,"0":17,"1":18,"2":19,"3":20,"4":21,"5":22,"6":23,"7":24,"8":25,"9":26,":":27,";":28,"<":29,"=":30,">":31,"?":32,"@":33,"A":34,"B":35,"C":36,"D":37,"E":38,"F":39,"G":40,"H":41,"I":42,"J":43,"K":44,"L":45,"M":46,"N":47,"O":48,"P":49,"Q":50,"R":51,"S":52,"T":53,"U":54,"V":55,"W":56,"X":57,"Y":58,"Z":59,"[":60,"]":61,"^":62,"_":63,"`":64,"a":65,"b":66,"c":67,"d":68,"e":69,"f":70,"g":71,"h":72,"i":73,"j":74,"k":75,"l":76,"m":77,"n":78,"o":79,"p":80,"q":81,"r":82,"s":83,"t":84,"u":85,"v":86,"w":87,"x":88,"y":89,"z":90,"{":91,"|":92,"}":93,"~":94,"²":95,"´":96,"·":97,"×":98,"é":99,"а":100,"е":101,"и":102,"н":103,"о":104,"р":105,"с":106,"т":107,"ᆞ":108,"—":109,"―":110,"‘":111,"’":112,"“":113,"”":114,"•":115,"․":116,"‥":117,"…":118,"‧":119,"※":120,"℃":121,"ℓ":122,"Ⅰ":123,"Ⅱ":124,"Ⅲ":125,"↑":126,"→":127,"∙":128,"∼":129,"≪":130,"≫":131,"⊙":132,"①":133,"②":134,"③":135,"④":136,"⑤":137,"⑥":138,"⑦":139,"─":140,"━":141,"│":142,"■":143,"□":144,"▲":145,"△":146,"▶":147,"▷":148,"▼":149,"◆":150,"◇":151,"◈":152,"○":153,"●":154,"★":155,"☆":156,"☞":157,"♀":158,"♡":159,"♥":160,"✔":161,"✨":162,"❤":163,"⠀":164,"〈":165,"〉":166,"《":167,"》":168,"「":169,"」":170,"『":171,"』":172,"【":173,"】":174,"〔":175,"〕":176,"の":177,"・":178,"ㄱ":179,"ㄴ":180,"ㄷ":181,"ㄹ":182,"ㅁ":183,"ㅂ":184,"ㅅ":185,"ㅇ":186,"ㅈ":187,"ㅋ":188,"ㅌ":189,"ㅎ":190,"ㅏ":191,"ㅜ":192,"ㅠ":193,"ㅡ":194,"ㅣ":195,"ㅤ":196,"ㆍ":197,"㈜":198,"㎎":199,"㎏":200,"㎖":201,"㎜":202,"㎝":203,"㎞":204,"㎡":205,"㎢":206,"㎥":207,"㎾":208,"㏊":209,"一":210,"七":211,"三":212,"上":213,"下":214,"不":215,"世":216,"中":217,"主":218,"之":219,"九":220,"也":221,"事":222,"二":223,"五":224,"京":225,"人":226,"仁":227,"代":228,"以":229,"任":230,"佛":231,"作":232,"使":233,"來":234,"例":235,"保":236,"信":237,"修":238,"傳":239,"債":240,"元":241,"先":242,"光":243,"入":244,"內":245,"全":246,"八":247,"公":248,"共":249,"兵":250,"其":251,"典":252,"出":253,"分":254,"判":255,"別":256,"利":257,"制":258,"則":259,"前":260,"力":261,"動":262,"務":263,"化":264,"北":265,"十":266,"南":267,"原":268,"反":269,"受":270,"口":271,"古":272,"可":273,"史":274,"司":275,"合":276,"吉":277,"同":278,"名":279,"君":280,"告":281,"周":282,"命":283,"和":284,"員":285,"商":286,"問":287,"善":288,"四":289,"國":290,"圖":291,"土":292,"在":293,"地":294,"城":295,"基":296,"堂":297,"報":298,"場":299,"士":300,"外":301,"多":302,"大":303,"天":304,"太":305,"夫":306,"契":307,"女":308,"如":309,"子":310,"字":311,"孫":312,"學":313,"安":314,"宗":315,"官":316,"定":317,"宮":318,"害":319,"家":320,"富":321,"實":322,"寺":323,"將":324,"對":325,"小":326,"山":327,"島":328,"川":329,"州":330,"己":331,"市":332,"帝":333,"師":334,"常":335,"平":336,"年":337,"府":338,"度":339,"廣":340,"式":341,"張":342,"强":343,"形":344,"後":345,"得":346,"德":347,"心":348,"志":349,"思":350,"性":351,"情":352,"惡":353,"想":354,"意":355,"愛":356,"憲":357,"成":358,"我":359,"戰":360,"所":361,"手":362,"擧":363,"支":364,"政":365,"故":366,"效":367,"敎":368,"數":369,"文":370,"新":371,"方":372,"於":373,"族":374,"日":375,"明":376,"春":377,"是":378,"時":379,"曰":380,"書":381,"會":382,"月":383,"有":384,"朝":385,"期":386,"木":387,"未":388,"本":389,"朴":390,"村":391,"東":392,"林":393,"株":394,"條":395,"業":396,"機":397,"權":398,"歌":399,"正":400,"此":401,"武":402,"死":403,"母":404,"氏":405,"民":406,"氣":407,"水":408,"求":409,"江":410,"決":411,"河":412,"治":413,"法":414,"海":415,"淸":416,"漢":417,"濟":418,"火":419,"無":420,"然":421,"爲":422,"父":423,"物":424,"獨":425,"王":426,"現":427,"理":428,"生":429,"産":430,"用":431,"田":432,"由":433,"甲":434,"男":435,"界":436,"異":437,"當":438,"發":439,"白":440,"百":441,"的":442,"相":443,"眞":444,"知":445,"石":446,"硏":447,"社":448,"祖":449,"神":450,"福":451,"禮":452,"私":453,"究":454,"空":455,"立":456,"章":457,"第":458,"節":459,"約":460,"統":461,"經":462,"美":463,"義":464,"者":465,"而":466,"聖":467,"能":468,"臣":469,"自":470,"至":471,"與":472,"色":473,"花":474,"英":475,"華":476,"萬":477,"處":478,"行":479,"表":480,"裁":481,"西":482,"要":483,"見":484,"規":485,"親":486,"觀":487,"解":488,"言":489,"記":490,"註":491,"詩":492,"語":493,"說":494,"論":495,"證":496,"議":497,"資":498,"身":499,"車":500,"軍":501,"近":502,"通":503,"運":504,"過":505,"道":506,"選":507,"郞":508,"部":509,"都":510,"鄭":511,"重":512,"野":513,"金":514,"銀":515,"錄":516,"長":517,"門":518,"開":519,"間":520,"關":521,"限":522,"院":523,"陽":524,"集":525,"雲":526,"靑":527,"非":528,"面":529,"韓":530,"風":531,"食":532,"馬":533,"體":534,"高":535,"鮮":536,"黃":537,"黨":538,"龍":539,"가":540,"각":541,"간":542,"갇":543,"갈":544,"감":545,"갑":546,"값":547,"갓":548,"갔":549,"강":550,"갖":551,"같":552,"갚":553,"갛":554,"개":555,"객":556,"갠":557,"갤":558,"갯":559,"갱":560,"갸":561,"걀":562,"걍":563,"걔":564,"거":565,"걱":566,"건":567,"걷":568,"걸":569,"검":570,"겁":571,"것":572,"겄":573,"겉":574,"게":575,"겐":576,"겔":577,"겟":578,"겠":579,"겨":580,"격":581,"겪":582,"견":583,"결":584,"겸":585,"겹":586,"겼":587,"경":588,"곁":589,"계":590,"고":591,"곡":592,"곤":593,"곧":594,"골":595,"곰":596,"곱":597,"곳":598,"공":599,"곶":600,"과":601,"곽":602,"관":603,"괄":604,"괌":605,"광":606,"괘":607,"괜":608,"괴":609,"굉":610,"교":611,"구":612,"국":613,"군":614,"굳":615,"굴":616,"굵":617,"굶":618,"굽":619,"굿":620,"궁":621,"궂":622,"궈":623,"권":624,"궐":625,"궤":626,"귀":627,"귄":628,"귓":629,"규":630,"균":631,"귤":632,"그":633,"극":634,"근":635,"글":636,"긁":637,"금":638,"급":639,"긋":640,"긍":641,"기":642,"긴":643,"길":644,"김":645,"깁":646,"깃":647,"깅":648,"깊":649,"까":650,"깍":651,"깎":652,"깐":653,"깔":654,"깜":655,"깝":656,"깡":657,"깥":658,"깨":659,"깬":660,"깻":661,"꺼":662,"꺽":663,"꺾":664,"껄":665,"껌":666,"껍":667,"껏":668,"껑":669,"께":670,"껴":671,"꼈":672,"꼬":673,"꼭":674,"꼴":675,"꼼":676,"꼽":677,"꼿":678,"꽁":679,"꽂":680,"꽃":681,"꽉":682,"꽝":683,"꽤":684,"꾀":685,"꾸":686,"꾹":687,"꾼":688,"꿀":689,"꿇":690,"꿈":691,"꿋":692,"꿍":693,"꿔":694,"꿨":695,"꿰":696,"뀌":697,"뀐":698,"뀔":699,"끄":700,"끈":701,"끊":702,"끌":703,"끓":704,"끔":705,"끗":706,"끙":707,"끝":708,"끼":709,"끽":710,"낀":711,"낄":712,"낌":713,"나":714,"낙":715,"낚":716,"난":717,"날":718,"낡":719,"남":720,"납":721,"낫":722,"났":723,"낭":724,"낮":725,"낯":726,"낱":727,"낳":728,"내":729,"낸":730,"낼":731,"냄":732,"냅":733,"냇":734,"냈":735,"냉":736,"냐":737,"냠":738,"냥":739,"너":740,"넉":741,"넋":742,"넌":743,"널":744,"넓":745,"넘":746,"넛":747,"넣":748,"네":749,"넥":750,"넨":751,"넬":752,"넷":753,"넸":754,"넹":755,"녀":756,"녁":757,"년":758,"념":759,"녔":760,"녕":761,"녘":762,"노":763,"녹":764,"논":765,"놀":766,"놈":767,"농":768,"높":769,"놓":770,"놔":771,"놨":772,"뇌":773,"뇨":774,"누":775,"눅":776,"눈":777,"눌":778,"눔":779,"눕":780,"눠":781,"눴":782,"뉘":783,"뉜":784,"뉴":785,"늄":786,"늉":787,"느":788,"늑":789,"는":790,"늘":791,"늙":792,"늠":793,"능":794,"늦":795,"늪":796,"늬":797,"니":798,"닉":799,"닌":800,"닐":801,"님":802,"닙":803,"닛":804,"닝":805,"다":806,"닥":807,"닦":808,"단":809,"닫":810,"달":811,"닭":812,"닮":813,"닳":814,"담":815,"답":816,"닷":817,"당":818,"닿":819,"대":820,"댁":821,"댄":822,"댈":823,"댐":824,"댓":825,"댔":826,"댕":827,"더":828,"덕":829,"던":830,"덜":831,"덟":832,"덤":833,"덥":834,"덧":835,"덩":836,"덫":837,"덮":838,"데":839,"덱":840,"덴":841,"델":842,"뎅":843,"뎌":844,"도":845,"독":846,"돈":847,"돋":848,"돌":849,"돔":850,"돕":851,"돗":852,"동":853,"돼":854,"됐":855,"되":856,"된":857,"될":858,"됨":859,"됩":860,"두":861,"둑":862,"둔":863,"둘":864,"둠":865,"둡":866,"둥":867,"둬":868,"뒀":869,"뒤":870,"뒷":871,"뒹":872,"듀":873,"듈":874,"드":875,"득":876,"든":877,"듣":878,"들":879,"듬":880,"듭":881,"듯":882,"등":883,"디":884,"딕":885,"딘":886,"딛":887,"딜":888,"딤":889,"딥":890,"딧":891,"딩":892,"딪":893,"따":894,"딱":895,"딴":896,"딸":897,"땀":898,"땄":899,"땅":900,"때":901,"땐":902,"땜":903,"땠":904,"땡":905,"떠":906,"떡":907,"떤":908,"떨":909,"떳":910,"떴":911,"떻":912,"떼":913,"뗄":914,"또":915,"똑":916,"똘":917,"똥":918,"뚜":919,"뚝":920,"뚤":921,"뚫":922,"뚱":923,"뛰":924,"뛴":925,"뛸":926,"뜨":927,"뜩":928,"뜬":929,"뜯":930,"뜰":931,"뜸":932,"뜻":933,"띄":934,"띈":935,"띔":936,"띠":937,"띤":938,"라":939,"락":940,"란":941,"랄":942,"람":943,"랍":944,"랏":945,"랐":946,"랑":947,"랗":948,"래":949,"랙":950,"랜":951,"랠":952,"램":953,"랩":954,"랫":955,"랬":956,"랭":957,"랴":958,"략":959,"량":960,"러":961,"럭":962,"런":963,"럴":964,"럼":965,"럽":966,"럿":967,"렀":968,"렁":969,"렇":970,"레":971,"렉":972,"렌":973,"렐":974,"렘":975,"렙":976,"렛":977,"려":978,"력":979,"련":980,"렬":981,"렴":982,"렵":983,"렷":984,"렸":985,"령":986,"례":987,"로":988,"록":989,"론":990,"롤":991,"롬":992,"롭":993,"롯":994,"롱":995,"뢰":996,"료":997,"룡":998,"루":999,"룩":1000,"룬":1001,"룰":1002,"룸":1003,"룹":1004,"룻":1005,"룽":1006,"뤄":1007,"뤘":1008,"뤼":1009,"류":1010,"륙":1011,"륜":1012,"률":1013,"륨":1014,"륭":1015,"르":1016,"륵":1017,"른":1018,"를":1019,"름":1020,"릅":1021,"릇":1022,"릉":1023,"릎":1024,"리":1025,"릭":1026,"린":1027,"릴":1028,"림":1029,"립":1030,"릿":1031,"링":1032,"마":1033,"막":1034,"만":1035,"많":1036,"맏":1037,"말":1038,"맑":1039,"맘":1040,"맙":1041,"맛":1042,"망":1043,"맞":1044,"맡":1045,"맣":1046,"매":1047,"맥":1048,"맨":1049,"맴":1050,"맵":1051,"맷":1052,"맹":1053,"맺":1054,"머":1055,"먹":1056,"먼":1057,"멀":1058,"멈":1059,"멋":1060,"멍":1061,"메":1062,"멕":1063,"멘":1064,"멜":1065,"멤":1066,"멧":1067,"멩":1068,"며":1069,"면":1070,"멸":1071,"몄":1072,"명":1073,"몇":1074,"모":1075,"목":1076,"몫":1077,"몬":1078,"몰":1079,"몸":1080,"몹":1081,"못":1082,"몽":1083,"묘":1084,"무":1085,"묵":1086,"묶":1087,"문":1088,"묻":1089,"물":1090,"뭄":1091,"뭇":1092,"뭉":1093,"뭐":1094,"뭔":1095,"뭘":1096,"뭡":1097,"뭣":1098,"뮌":1099,"뮤":1100,"뮬":1101,"므":1102,"믄":1103,"미":1104,"믹":1105,"민":1106,"믿":1107,"밀":1108,"밉":1109,"밋":1110,"밌":1111,"밍":1112,"및":1113,"밑":1114,"바":1115,"박":1116,"밖":1117,"반":1118,"받":1119,"발":1120,"밝":1121,"밟":1122,"밤":1123,"밥":1124,"밧":1125,"방":1126,"밭":1127,"배":1128,"백":1129,"밴":1130,"밸":1131,"뱀":1132,"뱃":1133,"뱅":1134,"뱉":1135,"버":1136,"벅":1137,"번":1138,"벌":1139,"범":1140,"법":1141,"벗":1142,"벙":1143,"벚":1144,"베":1145,"벡":1146,"벤":1147,"벨":1148,"벳":1149,"벼":1150,"벽":1151,"변":1152,"별":1153,"볍":1154,"병":1155,"볕":1156,"보":1157,"복":1158,"볶":1159,"본":1160,"볼":1161,"봄":1162,"봅":1163,"봇":1164,"봉":1165,"봐":1166,"봤":1167,"뵈":1168,"뵙":1169,"부":1170,"북":1171,"분":1172,"불":1173,"붉":1174,"붐":1175,"붓":1176,"붕":1177,"붙":1178,"뷔":1179,"뷰":1180,"브":1181,"븐":1182,"블":1183,"비":1184,"빅":1185,"빈":1186,"빌":1187,"빔":1188,"빗":1189,"빙":1190,"빚":1191,"빛":1192,"빠":1193,"빡":1194,"빤":1195,"빨":1196,"빴":1197,"빵":1198,"빼":1199,"빽":1200,"뺀":1201,"뺏":1202,"뺐":1203,"뺑":1204,"뺨":1205,"뻐":1206,"뻑":1207,"뻔":1208,"뻗":1209,"뻘":1210,"뻣":1211,"뻤":1212,"뻥":1213,"뼈":1214,"뽀":1215,"뽐":1216,"뽑":1217,"뽕":1218,"뾰":1219,"뿌":1220,"뿍":1221,"뿐":1222,"뿔":1223,"뿜":1224,"쁘":1225,"쁜":1226,"쁠":1227,"쁨":1228,"삐":1229,"사":1230,"삭":1231,"산":1232,"살":1233,"삶":1234,"삼":1235,"삽":1236,"삿":1237,"샀":1238,"상":1239,"샅":1240,"새":1241,"색":1242,"샌":1243,"샐":1244,"샘":1245,"샛":1246,"생":1247,"샤":1248,"샬":1249,"샴":1250,"샵":1251,"샷":1252,"샹":1253,"섀":1254,"서":1255,"석":1256,"섞":1257,"선":1258,"섣":1259,"설":1260,"섬":1261,"섭":1262,"섯":1263,"섰":1264,"성":1265,"세":1266,"섹":1267,"센":1268,"셀":1269,"셈":1270,"셉":1271,"셋":1272,"셔":1273,"션":1274,"셜":1275,"셨":1276,"셰":1277,"셸":1278,"소":1279,"속":1280,"손":1281,"솔":1282,"솜":1283,"솟":1284,"송":1285,"솥":1286,"쇄":1287,"쇠":1288,"쇼":1289,"숍":1290,"숏":1291,"수":1292,"숙":1293,"순":1294,"숟":1295,"술":1296,"숨":1297,"숫":1298,"숭":1299,"숯":1300,"숱":1301,"숲":1302,"쉐":1303,"쉬":1304,"쉰":1305,"쉴":1306,"쉼":1307,"쉽":1308,"슈":1309,"슐":1310,"슘":1311,"슛":1312,"스":1313,"슥":1314,"슨":1315,"슬":1316,"슭":1317,"슴":1318,"습":1319,"슷":1320,"승":1321,"시":1322,"식":1323,"신":1324,"싣":1325,"실":1326,"싫":1327,"심":1328,"십":1329,"싯":1330,"싱":1331,"싶":1332,"싸":1333,"싹":1334,"싼":1335,"쌀":1336,"쌈":1337,"쌌":1338,"쌍":1339,"쌓":1340,"쌤":1341,"써":1342,"썩":1343,"썬":1344,"썰":1345,"썸":1346,"썹":1347,"썼":1348,"썽":1349,"쎄":1350,"쏘":1351,"쏙":1352,"쏜":1353,"쏟":1354,"쏠":1355,"쏴":1356,"쐐":1357,"쑤":1358,"쑥":1359,"쓰":1360,"쓱":1361,"쓴":1362,"쓸":1363,"씀":1364,"씁":1365,"씌":1366,"씨":1367,"씩":1368,"씬":1369,"씹":1370,"씻":1371,"씽":1372,"아":1373,"악":1374,"안":1375,"앉":1376,"않":1377,"알":1378,"앓":1379,"암":1380,"압":1381,"앗":1382,"았":1383,"앙":1384,"앞":1385,"애":1386,"액":1387,"앤":1388,"앨":1389,"앰":1390,"앱":1391,"앵":1392,"야":1393,"약":1394,"얀":1395,"얄":1396,"얇":1397,"얌":1398,"양":1399,"얕":1400,"얗":1401,"얘":1402,"어":1403,"억":1404,"언":1405,"얹":1406,"얻":1407,"얼":1408,"얽":1409,"엄":1410,"업":1411,"없":1412,"엇":1413,"었":1414,"엉":1415,"엌":1416,"엎":1417,"에":1418,"엑":1419,"엔":1420,"엘":1421,"엠":1422,"엣":1423,"엥":1424,"여":1425,"역":1426,"엮":1427,"연":1428,"열":1429,"염":1430,"엽":1431,"엿":1432,"였":1433,"영":1434,"옆":1435,"예":1436,"옌":1437,"옐":1438,"옛":1439,"오":1440,"옥":1441,"온":1442,"올":1443,"옮":1444,"옳":1445,"옴":1446,"옵":1447,"옷":1448,"옹":1449,"와":1450,"왁":1451,"완":1452,"왈":1453,"왓":1454,"왔":1455,"왕":1456,"왜":1457,"왠":1458,"외":1459,"왼":1460,"요":1461,"욕":1462,"욜":1463,"욤":1464,"용":1465,"우":1466,"욱":1467,"운":1468,"울":1469,"움":1470,"웃":1471,"웅":1472,"워":1473,"웍":1474,"원":1475,"월":1476,"웠":1477,"웨":1478,"웬":1479,"웰":1480,"웹":1481,"위":1482,"윈":1483,"윌":1484,"윗":1485,"윙":1486,"유":1487,"육":1488,"윤":1489,"율":1490,"융":1491,"으":1492,"윽":1493,"은":1494,"을":1495,"읊":1496,"음":1497,"읍":1498,"응":1499,"의":1500,"이":1501,"익":1502,"인":1503,"일":1504,"읽":1505,"잃":1506,"임":1507,"입":1508,"잇":1509,"있":1510,"잉":1511,"잊":1512,"잎":1513,"자":1514,"작":1515,"잔":1516,"잖":1517,"잘":1518,"잠":1519,"잡":1520,"잣":1521,"잤":1522,"장":1523,"잦":1524,"재":1525,"잭":1526,"잼":1527,"잿":1528,"쟁":1529,"쟈":1530,"쟤":1531,"저":1532,"적":1533,"전":1534,"절":1535,"젊":1536,"점":1537,"접":1538,"젓":1539,"정":1540,"젖":1541,"제":1542,"젝":1543,"젠":1544,"젤":1545,"젯":1546,"져":1547,"졌":1548,"조":1549,"족":1550,"존":1551,"졸":1552,"좀":1553,"좁":1554,"종":1555,"좇":1556,"좋":1557,"좌":1558,"죄":1559,"죠":1560,"주":1561,"죽":1562,"준":1563,"줄":1564,"줌":1565,"줍":1566,"중":1567,"줘":1568,"줬":1569,"쥐":1570,"쥔":1571,"쥬":1572,"즈":1573,"즉":1574,"즌":1575,"즐":1576,"즘":1577,"즙":1578,"증":1579,"지":1580,"직":1581,"진":1582,"질":1583,"짊":1584,"짐":1585,"집":1586,"짓":1587,"징":1588,"짖":1589,"짙":1590,"짚":1591,"짜":1592,"짝":1593,"짠":1594,"짤":1595,"짧":1596,"짬":1597,"짭":1598,"짱":1599,"째":1600,"쨌":1601,"쩌":1602,"쩍":1603,"쩐":1604,"쩔":1605,"쩜":1606,"쩡":1607,"쪄":1608,"쪼":1609,"쪽":1610,"쫀":1611,"쫄":1612,"쫌":1613,"쫓":1614,"쫙":1615,"쬐":1616,"쭈":1617,"쭉":1618,"쭤":1619,"쯔":1620,"쯤":1621,"찌":1622,"찍":1623,"찐":1624,"찔":1625,"찜":1626,"찡":1627,"찢":1628,"차":1629,"착":1630,"찬":1631,"찮":1632,"찰":1633,"참":1634,"찹":1635,"찻":1636,"찼":1637,"창":1638,"찾":1639,"채":1640,"책":1641,"챈":1642,"챌":1643,"챔":1644,"챘":1645,"챙":1646,"처":1647,"척":1648,"천":1649,"철":1650,"첨":1651,"첩":1652,"첫":1653,"청":1654,"체":1655,"첸":1656,"첼":1657,"쳐":1658,"쳤":1659,"초":1660,"촉":1661,"촌":1662,"촘":1663,"촛":1664,"총":1665,"촬":1666,"최":1667,"쵸":1668,"추":1669,"축":1670,"춘":1671,"출":1672,"춤":1673,"춥":1674,"춧":1675,"충":1676,"춰":1677,"췄":1678,"췌":1679,"취":1680,"츄":1681,"츠":1682,"측":1683,"츰":1684,"층":1685,"치":1686,"칙":1687,"친":1688,"칠":1689,"침":1690,"칩":1691,"칫":1692,"칭":1693,"카":1694,"칵":1695,"칸":1696,"칼":1697,"캄":1698,"캉":1699,"캐":1700,"캔":1701,"캘":1702,"캠":1703,"캡":1704,"캣":1705,"캬":1706,"커":1707,"컥":1708,"컨":1709,"컫":1710,"컬":1711,"컴":1712,"컵":1713,"컷":1714,"컸":1715,"케":1716,"켄":1717,"켈":1718,"켓":1719,"켜":1720,"켠":1721,"켰":1722,"코":1723,"콕":1724,"콘":1725,"콜":1726,"콤":1727,"콥":1728,"콧":1729,"콩":1730,"콰":1731,"쾅":1732,"쾌":1733,"쿄":1734,"쿠":1735,"쿡":1736,"쿤":1737,"쿨":1738,"쿵":1739,"쿼":1740,"퀄":1741,"퀘":1742,"퀴":1743,"퀸":1744,"큐":1745,"큘":1746,"크":1747,"큰":1748,"클":1749,"큼":1750,"키":1751,"킥":1752,"킨":1753,"킬":1754,"킴":1755,"킷":1756,"킹":1757,"타":1758,"탁":1759,"탄":1760,"탈":1761,"탐":1762,"탑":1763,"탓":1764,"탔":1765,"탕":1766,"태":1767,"택":1768,"탠":1769,"탤":1770,"탬":1771,"탭":1772,"탱":1773,"터":1774,"턱":1775,"턴":1776,"털":1777,"텀":1778,"텁":1779,"텃":1780,"텅":1781,"테":1782,"텍":1783,"텐":1784,"텔":1785,"템":1786,"텝":1787,"텨":1788,"톈":1789,"토":1790,"톡":1791,"톤":1792,"톨":1793,"톰":1794,"톱":1795,"통":1796,"퇴":1797,"투":1798,"툭":1799,"툰":1800,"툴":1801,"툼":1802,"퉁":1803,"퉈":1804,"튀":1805,"튕":1806,"튜":1807,"튬":1808,"트":1809,"특":1810,"튼":1811,"튿":1812,"틀":1813,"틈":1814,"틋":1815,"티":1816,"틱":1817,"틴":1818,"틸":1819,"팀":1820,"팁":1821,"팅":1822,"파":1823,"팍":1824,"팎":1825,"판":1826,"팔":1827,"팜":1828,"팝":1829,"팟":1830,"팠":1831,"팡":1832,"팥":1833,"패":1834,"팩":1835,"팬":1836,"팰":1837,"팸":1838,"팻":1839,"팽":1840,"퍼":1841,"퍽":1842,"펀":1843,"펄":1844,"펌":1845,"펑":1846,"페":1847,"펙":1848,"펜":1849,"펠":1850,"펫":1851,"펴":1852,"편":1853,"펼":1854,"폄":1855,"폈":1856,"평":1857,"폐":1858,"포":1859,"폭":1860,"폰":1861,"폴":1862,"폼":1863,"퐁":1864,"표":1865,"푸":1866,"푹":1867,"푼":1868,"풀":1869,"품":1870,"풋":1871,"풍":1872,"퓨":1873,"퓰":1874,"프":1875,"픈":1876,"플":1877,"픔":1878,"피":1879,"픽":1880,"핀":1881,"필":1882,"핍":1883,"핏":1884,"핑":1885,"하":1886,"학":1887,"한":1888,"할":1889,"함":1890,"합":1891,"핫":1892,"항":1893,"해":1894,"핵":1895,"핸":1896,"햄":1897,"햇":1898,"했":1899,"행":1900,"향":1901,"허":1902,"헉":1903,"헌":1904,"헐":1905,"험":1906,"헛":1907,"헝":1908,"헤":1909,"헥":1910,"헨":1911,"헬":1912,"헷":1913,"혀":1914,"혁":1915,"현":1916,"혈":1917,"혐":1918,"협":1919,"혔":1920,"형":1921,"혜":1922,"호":1923,"혹":1924,"혼":1925,"홀":1926,"홈":1927,"홉":1928,"홍":1929,"화":1930,"확":1931,"환":1932,"활":1933,"황":1934,"회":1935,"획":1936,"횟":1937,"횡":1938,"효":1939,"후":1940,"훈":1941,"훌":1942,"훑":1943,"훔":1944,"훗":1945,"훤":1946,"훨":1947,"훼":1948,"휘":1949,"휙":1950,"휠":1951,"휩":1952,"휴":1953,"흉":1954,"흐":1955,"흑":1956,"흔":1957,"흘":1958,"흙":1959,"흠":1960,"흡":1961,"흥":1962,"흩":1963,"희":1964,"흰":1965,"히":1966,"힌":1967,"힐":1968,"힘":1969,"힙":1970,"金":1971,"不":1972,"女":1973,"李":1974,"理":1975,"️":1976,"＂":1977,"％":1978,"＆":1979,"＋":1980,"，":1981,"－":1982,"：":1983,"；":1984,"＜":1985,"＝":1986,"＞":1987,"ｍ":1988,"ｔ":1989,"｜":1990,"｢":1991,"｣":1992,"🏻":1993,"👉":1994,"👍":1995,"💕":1996,"😂":1997,"😆":1998,"😍":1999,"😭":2000,"🤣":2001,"##u":2002,"##p":2003,"##e":2004,"##r":2005,"##f":2006,"##l":2007,"##a":2008,"##n":2009,"##t":2010,"##i":2011,"##기":2012,"##호":2013,"##순":2014,"##환":2015,"##개":2016,"##선":2017,"##제":2018,"##ㆍ":2019,"##혈":2020,"##소":2021,"##판":2022,"##응":2023,"##집":2024,"##억":2025,"##그":2026,"##러":2027,"##들":2028,"##q":2029,"##종":2030,"##훈":2031,"##z":2032,"##o":2033,"##m":2034,"##k":2035,"##d":2036,"##b":2037,"##s":2038,"##박":2039,"##진":2040,"##미":2041,"##v":2042,"##c":2043,"##성":2044,"##용":2045,"##5":2046,"##4":2047,"##어":2048,"##이":2049,"##음":2050,"##h":2051,"##석":2052,"##현":2053,"##마":2054,"##읍":2055,"##리":2056,"##ㅏ":2057,"##ㅅ":2058,"##다":2059,"##사":2060,"##g":2061,"##생":2062,"##산":2063,"##시":2064,"##설":2065,"##을":2066,"##재":2067,"##료":2068,"##술":2069,"##은":2070,"##ㅋ":2071,"##나":2072,"##y":2073,"##매":2074,"##업":2075,"##의":2076,"##é":2077,"##T":2078,"##0":2079,"##1":2080,"##직":2081,"##할":2082,"##공":2083,"##망":2084,"##고":2085,"##키":2086,"##위":2087,"##복":2088,"##합":2089,"##체":2090,"##두":2091,"##ㅠ":2092,"##식":2093,"##해":2094,"##님":2095,"##뻥":2096,"##바":2097,"##겔":2098,"##출":2099,"##세":2100,"##대":2101,"##E":2102,"##A":2103,"##R":2104,"##C":2105,"##H":2106,"##M":2107,"##N":2108,"##서":2109,"##수":2110,"##민":2111,"##터":2112,"##가":2113,"##압":2114,"##지":2115,"##도":2116,"##교":2117,"##장":2118,"##영":2119,"##혼":2120,"##회":2121,"##적":2122,"##봉":2123,"##카":2124,"##츠":2125,"##져":2126,"##온":2127,"##르":2128,"##무":2129,"##관":2130,"##D":2131,"##척":2132,"##본":2133,"##우":2134,"##를":2135,"##평":2136,"##통":2137,"##갑":2138,"##열":2139,"##쇠":2140,"##부":2141,"##과":2142,"##젠":2143,"##데":2144,"##👍":2145,"##멀":2146,"##떠":2147,"##비":2148,"##💕":2149,"##릿":2150,"##만":2151,"##자":2152,"##연":2153,"##금":2154,"##후":2155,"##추":2156,"##파":2157,"##슬":2158,"##루":2159,"##필":2160,"##승":2161,"##전":2162,"##찬":2163,"##앙":2164,"##오":2165,"##근":2166,"##에":2167,"##겐":2168,"##남":2169,"##여":2170,"##축":2171,"##w":2172,"##맥":2173,"##울":2174,"##보":2175,"##인":2176,"##거":2177,"##라":2178,"##요":2179,"##능":2180,"##I":2181,"##O":2182,"##깅":2183,"##엉":2184,"##ㅇ":2185,"##레":2186,"##저":2187,"##쇼":2188,"##핑":2189,"##육":2190,"##예":2191,"##3":2192,"##8":2193,"##션":2194,"##휴":2195,"##량":2196,"##로":2197,"##테":2198,"##른":2199,"##네":2200,"##톰":2201,"##하":2202,"##B":2203,"##권":2204,"##포":2205,"##니":2206,"##일":2207,"##명":2208,"##끄":2209,"##K":2210,"##Y":2211,"##각":2212,"##극":2213,"##탈":2214,"##학":2215,"##습":2216,"##디":2217,"##양":2218,"##광":2219,"##주":2220,"##송":2221,"##치":2222,"##국":2223,"##아":2224,"##즈":2225,"##텍":2226,"##잉":2227,"##말":2228,"##차":2229,"##칠":2230,"##슨":2231,"##잎":2232,"##9":2233,"##L":2234,"##S":2235,"##방":2236,"##맹":2237,"##란":2238,"##군":2239,"##ㅂ":2240,"##짜":2241,"##올":2242,"##같":2243,"##케":2244,"##6":2245,"##걸":2246,"##신":2247,"##구":2248,"##원":2249,"##눈":2250,"##7":2251,"##스":2252,"##타":2253,"##푸":2254,"##코":2255,"##는":2256,"##태":2257,"##앤":2258,"##젤":2259,"##피":2260,"##버":2261,"##트":2262,"##물":2263,"##화":2264,"##첨":2265,"##엄":2266,"##청":2267,"##렴":2268,"##름":2269,"##새":2270,"##끼":2271,"##야":2272,"##▼":2273,"##폭":2274,"##염":2275,"##으":2276,"##강":2277,"##릉":2278,"##머":2279,"##안":2280,"##중":2281,"##흥":2282,"##단":2283,"##정":2284,"##김":2285,"##임":2286,"##상":2287,"##령":2288,"##크":2289,"##죄":2290,"##처":2291,"##벌":2292,"##x":2293,"##운":2294,"##유":2295,"##까":2296,"##숙":2297,"##특":2298,"##2":2299,"##J":2300,"##증":2301,"##왕":2302,"##녀":2303,"##며":2304,"##j":2305,"##U":2306,"##투":2307,"##발":2308,"##X":2309,"##철":2310,"##F":2311,"##래":2312,"##표":2313,"##ㄹ":2314,"##게":2315,"##럽":2316,"##더":2317,"##죠":2318,"##턴":2319,"##림":2320,"##돌":2321,"##P":2322,"##닌":2323,"##채":2324,"##동":2325,"##뀌":2326,"##엇":2327,"##역":2328,"##건":2329,"##작":2330,"##황":2331,"##창":2332,"##난":2333,"##천":2334,"##홈":2335,"##립":2336,"##협":2337,"##G":2338,"##댐":2339,"##드":2340,"##곤":2341,"##볼":2342,"##문":2343,"##언":2344,"##애":2345,"##옥":2346,"##W":2347,"##록":2348,"##헤":2349,"##백":2350,"##속":2351,"##땐":2352,"##귀":2353,"##폰":2354,"##꽂":2355,"##었":2356,"##넌":2357,"##심":2358,"##틀":2359,"##춘":2360,"##희":2361,"##완":2362,"##간":2363,"##됐":2364,"##겨":2365,"##내":2366,"##려":2367,"##했":2368,"##입":2369,"##절":2370,"##ㅎ":2371,"##행":2372,"##악":2373,"##분":2374,"##샘":2375,"##랑":2376,"##효":2377,"##큐":2378,"##경":2379,"##람":2380,"##따":2381,"##웠":2382,"##토":2383,"##셀":2384,"##릴":2385,"##먹":2386,"##손":2387,"##모":2388,"##V":2389,"##배":2390,"##병":2391,"##막":2392,"##늘":2393,"##류":2394,"##랭":2395,"##윤":2396,"##ㅌ":2397,"##날":2398,"##앵":2399,"##벨":2400,"##벳":2401,"##독":2402,"##노":2403,"##뽀":2404,"##담":2405,"##ㅜ":2406,"##씬":2407,"##긴":2408,"##ᆞ":2409,"##팅":2410,"##던":2411,"##셔":2412,"##누":2413,"##쓰":2414,"##계":2415,"##충":2416,"##외":2417,"##항":2418,"##ㄱ":2419,"##델":2420,"##활":2421,"##품":2422,"##칙":2423,"##익":2424,"##옷":2425,"##월":2426,"##짠":2427,"##질":2428,"##액":2429,"##융":2430,"##감":2431,"##콘":2432,"##텐":2433,"##솔":2434,"##탁":2435,"##별":2436,"##년":2437,"##졸":2438,"##많":2439,"##삼":2440,"##형":2441,"##너":2442,"##조":2443,"##변":2444,"##달":2445,"##죽":2446,"##긋":2447,"##넹":2448,"##н":2449,"##홍":2450,"##길":2451,"##곳":2452,"##준":2453,"##알":2454,"##낫":2455,"##잔":2456,"##면":2457,"##풀":2458,"##с":2459,"##е":2460,"##о":2461,"##곡":2462,"##린":2463,"##택":2464,"##히":2465,"##접":2466,"##한":2467,"##듯":2468,"##베":2469,"##논":2470,"##섭":2471,"##룩":2472,"##댔":2473,"##실":2474,"##급":2475,"##렌":2476,"##훼":2477,"##당":2478,"##향":2479,"##씨":2480,"##겼":2481,"##색":2482,"##엽":2483,"##흐":2484,"##족":2485,"##결":2486,"##납":2487,"##등":2488,"##р":2489,"##а":2490,"##참":2491,"##못":2492,"##되":2493,"##и":2494,"##롱":2495,"##패":2496,"##딩":2497,"##골":2498,"##격":2499,"##흑":2500,"##규":2501,"##좀":2502,"##커":2503,"##였":2504,"##큼":2505,"##허":2506,"##균":2507,"##범":2508,"##🏻":2509,"##잖":2510,"##메":2511,"##프":2512,"##꽃":2513,"##번":2514,"##쇄":2515,"##랄":2516,"##법":2517,"##락":2518,"##와":2519,"##낼":2520,"##찰":2521,"##써":2522,"##력":2523,"##꼈":2524,"##꾼":2525,"##냐":2526,"##함":2527,"##밀":2528,"##점":2529,"##풍":2530,"##율":2531,"##초":2532,"##반":2533,"##득":2534,"##꼴":2535,"##벙":2536,"##침":2537,"##т":2538,"##렸":2539,"##묘":2540,"##념":2541,"##팸":2542,"##플":2543,"##북":2544,"##빌":2545,"##몰":2546,"##퇴":2547,"##혁":2548,"##흉":2549,"##ㄷ":2550,"##탄":2551,"##렁":2552,"##힐":2553,"##링":2554,"##책":2555,"##펠":2556,"##믿":2557,"##혔":2558,"##암":2559,"##센":2560,"##웅":2561,"##둑":2562,"##쫀":2563,"##숭":2564,"##겸":2565,"##덕":2566,"##론":2567,"##꼬":2568,"##춤":2569,"##ㅡ":2570,"##빠":2571,"##갓":2572,"##냉":2573,"##갈":2574,"##편":2575,"##씌":2576,"##련":2577,"##왼":2578,"##몬":2579,"##클":2580,"##좌":2581,"##싶":2582,"##취":2583,"##딱":2584,"##불":2585,"##약":2586,"##륵":2587,"##쪼":2588,"##꼽":2589,"##살":2590,"##섹":2591,"##률":2592,"##찌":2593,"##뇨":2594,"##샤":2595,"##껍":2596,"##칼":2597,"##슈":2598,"##렀":2599,"##블":2600,"##빙":2601,"##킨":2602,"##견":2603,"##륙":2604,"##맞":2605,"##객":2606,"##엿":2607,"##Z":2608,"##목":2609,"##욕":2610,"##엔":2611,"##먼":2612,"##폐":2613,"##얼":2614,"##굴":2615,"##첩":2616,"##웨":2617,"##켜":2618,"##힘":2619,"##갯":2620,"##층":2621,"##빵":2622,"##빈":2623,"##헌":2624,"##팀":2625,"##괴":2626,"##농":2627,"##최":2628,"##ㅈ":2629,"##밍":2630,"##톤":2631,"##넥":2632,"##잇":2633,"##촬":2634,"##곽":2635,"##랜":2636,"##십":2637,"##랏":2638,"##엌":2639,"##템":2640,"##퀴":2641,"##브":2642,"##닥":2643,"##둠":2644,"##왈":2645,"##픈":2646,"##뇌":2647,"##될":2648,"##️":2649,"##궁":2650,"##쟈":2651,"##괘":2652,"##섬":2653,"##랩":2654,"##콩":2655,"##텔":2656,"##꾸":2657,"##짝":2658,"##벼":2659,"##험":2660,"##룡":2661,"##촉":2662,"##쿠":2663,"##워":2664,"##착":2665,"##털":2666,"##얌":2667,"##밌":2668,"##칭":2669,"##굿":2670,"##닷":2671,"##쳐":2672,"##😭":2673,"##튼":2674,"##께":2675,"##꺼":2676,"##둥":2677,"##Q":2678,"##욱":2679,"##멜":2680,"##둔":2681,"##톡":2682,"##쌍":2683,"##뿌":2684,"##찾":2685,"##있":2686,"##굶":2687,"##빡":2688,"##묵":2689,"##뭉":2690,"##칸":2691,"##딘":2692,"##쁨":2693,"##꼼":2694,"##확":2695,"##😆":2696,"##컨":2697,"##글":2698,"##혜":2699,"##벤":2700,"##셜":2701,"##셰":2702,"##놈":2703,"##넨":2704,"##늄":2705,"##튀":2706,"##벽":2707,"##긍":2708,"##퍼":2709,"##멕":2710,"##횡":2711,"##깔":2712,"##좋":2713,"##즉":2714,"##낭":2715,"##짐":2716,"##친":2717,"##옴":2718,"##륜":2719,"##답":2720,"##걀":2721,"##퉁":2722,"##뮌":2723,"##헨":2724,"##것":2725,"##쟁":2726,"##촌":2727,"##럼":2728,"##쓴":2729,"##맛":2730,"##톱":2731,"##탐":2732,"##검":2733,"##랴":2734,"##볶":2735,"##댁":2736,"##휘":2737,"##잡":2738,"##멍":2739,"##페":2740,"##껏":2741,"##랍":2742,"##찮":2743,"##티":2744,"##겄":2745,"##햇":2746,"##콜":2747,"##뜨":2748,"##헬":2749,"##빛":2750,"##낸":2751,"##ㄴ":2752,"##삽":2753,"##받":2754,"##쥐":2755,"##혀":2756,"##겟":2757,"##펴":2758,"##셈":2759,"##맨":2760,"##킬":2761,"##돈":2762,"##닮":2763,"##앗":2764,"##흠":2765,"##の":2766,"##젯":2767,"##궐":2768,"##밖":2769,"##략":2770,"##즘":2771,"##때":2772,"##줄":2773,"##톨":2774,"##든":2775,"##릅":2776,"##춰":2777,"##널":2778,"##뿐":2779,"##럴":2780,"##갛":2781,"##샌":2782,"##쌓":2783,"##곰":2784,"##팡":2785,"##뤼":2786,"##😂":2787,"##🤣":2788,"##또":2789,"##례":2790,"##튜":2791,"##샐":2792,"##옵":2793,"##곱":2794,"##탕":2795,"##씹":2796,"##맘":2797,"##꼭":2798,"##ㅁ":2799,"##됨":2800,"##콧":2801,"##😍":2802,"##툰":2803,"##떡":2804,"##획":2805,"##쾌":2806,"##줘":2807,"##돼":2808,"##삭":2809,"##덜":2810,"##몽":2811,"##몹":2812,"##뮤":2813,"##○":2814,"##²":2815,"##뺏":2816,"##멸":2817,"##귄":2818,"##캠":2819,"##럭":2820,"##겁":2821,"##쭈":2822,"##룽":2823,"##홀":2824,"##쭉":2825,"##넬":2826,"##뮬":2827,"##옹":2828,"##ｍ":2829,"##쌈":2830,"##밥":2831,"##둬":2832,"##닭":2833,"##똥":2834,"##콰":2835,"##섯":2836,"##덤":2837,"##룬":2838,"##웬":2839,"##엘":2840,"##깨":2841,"##끗":2842,"##▷":2843,"##냈":2844,"##뢰":2845,"##꾹":2846,"##놓":2847,"##돕":2848,"##웃":2849,"##흔":2850,"##홉":2851,"##큰":2852,"##늑":2853,"##쑤":2854,"##핀":2855,"##총":2856,"##⠀":2857,"##뱃":2858,"##븐":2859,"##끔":2860,"##꽁":2861,"##뼈":2862,"##샹":2863,"##놀":2864,"##챔":2865,"##존":2866,"##릭":2867,"##헝":2868,"##않":2869,"##앉":2870,"##젓":2871,"##늙":2872,"##흙":2873,"##롯":2874,"##핵":2875,"##멘":2876,"##ㅣ":2877,"##넷":2878,"##뱅":2879,"##킹":2880,"##렬":2881,"##끈":2882,"##았":2883,"##횟":2884,"##떻":2885,"##걔":2886,"##뷰":2887,"##슘":2888,"##팔":2889,"##쉬":2890,"##움":2891,"##몸":2892,"##헐":2893,"##된":2894,"##캐":2895,"##없":2896,"##윙":2897,"##앱":2898,"##끓":2899,"##궤":2900,"##쯔":2901,"##딸":2902,"##덴":2903,"##왔":2904,"##듬":2905,"##뺨":2906,"##멧":2907,"##덮":2908,"##녹":2909,"##붓":2910,"##픔":2911,"##뒷":2912,"##꿈":2913,"##잘":2914,"##겠":2915,"##빨":2916,"##짓":2917,"##낙":2918,"##느":2919,"##②":2920,"##⑤":2921,"##⑥":2922,"##녕":2923,"##넘":2924,"##켓":2925,"##싼":2926,"##×":2927,"##믹":2928,"##덧":2929,"##딧":2930,"##퓨":2931,"##싸":2932,"##쑥":2933,"##멋":2934,"##붕":2935,"##얻":2936,"##빅":2937,"##캡":2938,"##싱":2939,"##츰":2940,"##닝":2941,"##펜":2942,"##핏":2943,"##돔":2944,"##썽":2945,"##밤":2946,"##캔":2947,"##졌":2948,"##탠":2949,"##탑":2950,"##쳤":2951,"##닉":2952,"##늬":2953,"##런":2954,"##킥":2955,"##떼":2956,"##틱":2957,"##쉽":2958,"##괄":2959,"##걍":2960,"##＋":2961,"##깐":2962,"##첫":2963,"##옆":2964,"##엑":2965,"##왓":2966,"##므":2967,"##붙":2968,"##띠":2969,"##렉":2970,"##렇":2971,"##흡":2972,"##징":2973,"##뜩":2974,"##빗":2975,"##츄":2976,"##뒤":2977,"##롬":2978,"##삐":2979,"##켰":2980,"##챈":2981,"##렙":2982,"##콥":2983,"##콤":2984,"##쌤":2985,"##갸":2986,"##슴":2987,"##∼":2988,"##닿":2989,"##랫":2990,"##혹":2991,"##냥":2992,"##컴":2993,"##밋":2994,"##봐":2995,"##팬":2996,"##땅":2997,"##쿤":2998,"##즐":2999,"##켈":3000,"##딕":3001,"##뭐":3002,"##벡":3003,"##엥":3004,"##낱":3005,"##딛":3006,"##닐":3007,"##셨":3008,"##콕":3009,"##똑":3010,"##앨":3011,"##깜":3012,"##떨":3013,"##＜":3014,"##놨":3015,"##컬":3016,"##쪽":3017,"##퀘":3018,"##끌":3019,"##쌀":3020,"##찹":3021,"##잠":3022,"##램":3023,"##옌":3024,"##쿨":3025,"##윈":3026,"##폴":3027,"##덩":3028,"##잃":3029,"##측":3030,"##롤":3031,"##꿀":3032,"##쪄":3033,"##컥":3034,"##밧":3035,"##펀":3036,"##낌":3037,"##햄":3038,"##욜":3039,"##틸":3040,"##씀":3041,"##닛":3042,"##값":3043,"##훤":3044,"##■":3045,"##싯":3046,"##얽":3047,"##턱":3048,"##괜":3049,"##덥":3050,"##첸":3051,"##뽑":3052,"##둘":3053,"##밸":3054,"##쿄":3055,"##캄":3056,"##륨":3057,"##껄":3058,"##꿍":3059,"##젖":3060,"##봄":3061,"##뉴":3062,"##듣":3063,"##귤":3064,"##펌":3065,"##툴":3066,"##숨":3067,"##윗":3068,"##봤":3069,"##엠":3070,"##섰":3071,"##엎":3072,"##듀":3073,"##킴":3074,"##잣":3075,"##찼":3076,"##낚":3077,"##렛":3078,"##썰":3079,"##굽":3080,"##펄":3081,"##푹":3082,"##▶":3083,"##굳":3084,"##찍":3085,"##맴":3086,"##룹":3087,"##쵸":3088,"##벅":3089,"##높":3090,"##쥬":3091,"##룻":3092,"##◆":3093,"##쩌":3094,"##궈":3095,"##갤":3096,"##찡":3097,"##쩜":3098,"##즙":3099,"##댄":3100,"##텨":3101,"##깥":3102,"##슭":3103,"##뽕":3104,"##렷":3105,"##뀐":3106,"##렐":3107,"##뗄":3108,"##룰":3109,"##틴":3110,"##헉":3111,"##댈":3112,"##뤘":3113,"##룸":3114,"##Ⅱ":3115,"##Ⅲ":3116,"##젝":3117,"##볕":3118,"##밑":3119,"##맡":3120,"##뚝":3121,"##팍":3122,"##꾀":3123,"##깡":3124,"##썹":3125,"##릎":3126,"##슷":3127,"##→":3128,"##왜":3129,"##탭":3130,"##눔":3131,"##째":3132,"##셋":3133,"##깊":3134,"##팥":3135,"##뭇":3136,"##뻐":3137,"##끝":3138,"##뚱":3139,"##씻":3140,"##팽":3141,"##푼":3142,"##낄":3143,"##렵":3144,"##깃":3145,"##읽":3146,"##삶":3147,"##돋":3148,"##눕":3149,"##녔":3150,"##륭":3151,"##□":3152,"##●":3153,"##쉼":3154,"##눌":3155,"##걷":3156,"##핫":3157,"##빼":3158,"##흰":3159,"##솜":3160,"##끽":3161,"##꿔":3162,"##났":3163,"##늦":3164,"##뚜":3165,"##딜":3166,"##닙":3167,"##싫":3168,"##왠":3169,"##퐁":3170,"##쉐":3171,"##쁘":3172,"##△":3173,"##≪":3174,"##숍":3175,"##즌":3176,"##댕":3177,"##펙":3178,"##샴":3179,"##싹":3180,"##큘":3181,"##왁":3182,"##숫":3183,"##맷":3184,"##뜰":3185,"##텀":3186,"##쫄":3187,"##찜":3188,"##짱":3189,"##윌":3190,"##뛰":3191,"##펑":3192,"##줌":3193,"##괌":3194,"##꺽":3195,"##믄":3196,"##갠":3197,"##봇":3198,"##윽":3199,"##뜻":3200,"##셉":3201,"##겉":3202,"##뱀":3203,"##갱":3204,"##㎝":3205,"##톈":3206,"##튬":3207,"##컵":3208,"##탬":3209,"##섞":3210,"##밭":3211,"##깍":3212,"##쁠":3213,"##뜸":3214,"##굵":3215,"##랬":3216,"##핍":3217,"##늪":3218,"##펫":3219,"##뉘":3220,"##젊":3221,"##릇":3222,"##랐":3223,"##팩":3224,"##탤":3225,"##걱":3226,"##딪":3227,"##쁜":3228,"##①":3229,"##④":3230,"##씽":3231,"##녁":3232,"##⑦":3233,"##픽":3234,"##삿":3235,"##Ⅰ":3236,"##쿡":3237,"##랗":3238,"##헷":3239,"##ㅤ":3240,"##쏟":3241,"##뷔":3242,"##힌":3243,"##쭤":3244,"##뤄":3245,"##뎅":3246,"##쩔":3247,"##핸":3248,"##훌":3249,"##곶":3250,"##갔":3251,"##랙":3252,"##섀":3253,"##뭔":3254,"##뎌":3255,"##웹":3256,"##뚤":3257,"##샷":3258,"##숲":3259,"##솥":3260,"##낮":3261,"##렘":3262,"##틈":3263,"##킷":3264,"##땡":3265,"##줬":3266,"##낳":3267,"##숯":3268,"##얀":3269,"##뻔":3270,"##✨":3271,"##밴":3272,"##듭":3273,"##궂":3274,"##탱":3275,"##★":3276,"##☆":3277,"##멩":3278,"##쥔":3279,"##롭":3280,"##샵":3281,"##뭄":3282,"##욤":3283,"##찐":3284,"##틋":3285,"##깁":3286,"##뾰":3287,"##찻":3288,"##씩":3289,"##벗":3290,"##뵈":3291,"##넉":3292,"##웍":3293,"##앞":3294,"##캣":3295,"##눠":3296,"##눅":3297,"##뺀":3298,"##옳":3299,"##켄":3300,"##쩍":3301,"##♥":3302,"##뿔":3303,"##넓":3304,"##붐":3305,"##흘":3306,"##힙":3307,"##딴":3308,"##웰":3309,"##팜":3310,"##췌":3311,"##댓":3312,"##벚":3313,"##멈":3314,"##챙":3315,"##겹":3316,"##귓":3317,"##뜬":3318,"##쉴":3319,"##줍":3320,"##봅":3321,"##몇":3322,"##껴":3323,"##찔":3324,"##덱":3325,"##꽝":3326,"##텅":3327,"##㈜":3328,"##뿜":3329,"##멤":3330,"##샛":3331,"##냄":3332,"##❤":3333,"##앰":3334,"##촛":3335,"##슥":3336,"##앓":3337,"##첼":3338,"##혐":3339,"##컷":3340,"##쐐":3341,"##훔":3342,"##뻘":3343,"##곧":3344,"##쓸":3345,"##👉":3346,"##껌":3347,"##칵":3348,"##짚":3349,"##쯤":3350,"##닫":3351,"##껑":3352,"##얄":3353,"##짭":3354,"##띔":3355,"##놔":3356,"##팝":3357,"##깝":3358,"##솟":3359,"##쏘":3360,"##쏙":3361,"##팟":3362,"##짖":3363,"##얘":3364,"##셸":3365,"##쫓":3366,"##냠":3367,"##꼿":3368,"##뒹":3369,"##얗":3370,"##밝":3371,"##쿵":3372,"##숟":3373,"##▲":3374,"##쎄":3375,"##캉":3376,"##쓱":3377,"##슐":3378,"##갚":3379,"##쫙":3380,"##춧":3381,"##굉":3382,"##텝":3383,"##짤":3384,"##빔":3385,"##㎡":3386,"##뛴":3387,"##썼":3388,"##붉":3389,"##칫":3390,"##긁":3391,"##퀄":3392,"##춥":3393,"##둡":3394,"##칩":3395,"##듈":3396,"##ｔ":3397,"##♡":3398,"##헥":3399,"##땀":3400,"##쏠":3401,"##뻗":3402,"##☞":3403,"##떤":3404,"##풋":3405,"##깬":3406,"##끊":3407,"##팠":3408,"##냅":3409,"##딤":3410,"##넛":3411,"##챌":3412,"##퀸":3413,"##갖":3414,"##팰":3415,"##썩":3416,"##엮":3417,"##옐":3418,"##뭡":3419,"##낯":3420,"##캘":3421,"##럿":3422,"##헛":3423,"##빤":3424,"##썸":3425,"##낀":3426,"##늠":3427,"##샬":3428,"##몫":3429,"##↑":3430,"##뻑":3431,"##팁":3432,"##툼":3433,"##③":3434,"##＝":3435,"##´":3436,"##─":3437,"##훨":3438,"##똘":3439,"##딥":3440,"##쉰":3441,"##및":3442,"##띤":3443,"##│":3444,"##녘":3445,"##짧":3446,"##퍽":3447,"##짬":3448,"##슛":3449,"##뻣":3450,"##잦":3451,"##볍":3452,"##쏴":3453,"##촘":3454,"##폼":3455,"##쟤":3456,"##맙":3457,"##맏":3458,"##쫌":3459,"##텃":3460,"##엣":3461,"##씁":3462,"##닦":3463,"##밟":3464,"##잼":3465,"##묻":3466,"##펼":3467,"##맣":3468,"##✔":3469,"##빴":3470,"##툭":3471,"##넣":3472,"##캬":3473,"##얹":3474,"##◇":3475,"##쩡":3476,"##쾅":3477,"##맵":3478,"##｜":3479,"##좇":3480,"##떴":3481,"##∙":3482,"##℃":3483,"##냇":3484,"##돗":3485,"##퓰":3486,"##꿇":3487,"##잊":3488,"##꿨":3489,"##튿":3490,"##폈":3491,"##썬":3492,"##쬐":3493,"##팎":3494,"##휙":3495,"##폄":3496,"##쩐":3497,"##췄":3498,"##뺑":3499,"##잿":3500,"##쏜":3501,"##쿼":3502,"##켠":3503,"##잭":3504,"##탓":3505,"##챘":3506,"##깎":3507,"##텁":3508,"##숏":3509,"##옮":3510,"##뿍":3511,"##땜":3512,"##맑":3513,"##옛":3514,"##튕":3515,"##훗":3516,"##샅":3517,"##떳":3518,"##뭘":3519,"##깻":3520,"##짙":3521,"##맺":3522,"##컫":3523,"##얇":3524,"##꺾":3525,"##랠":3526,"##쌌":3527,"##싣":3528,"##좁":3529,"##숱":3530,"##뻤":3531,"##빚":3532,"##겪":3533,"##찢":3534,"##뛸":3535,"##늉":3536,"##뜯":3537,"##━":3538,"##덟":3539,"##＞":3540,"##잤":3541,"##♀":3542,"##덫":3543,"##밉":3544,"##휠":3545,"##빽":3546,"##팻":3547,"##뒀":3548,"##땠":3549,"##뀔":3550,"##끙":3551,"##갇":3552,"##눴":3553,"##⊙":3554,"##흩":3555,"##묶":3556,"##컸":3557,"##읊":3558,"##㏊":3559,"##꿰":3560,"##띄":3561,"##㎞":3562,"##퉈":3563,"##낡":3564,"##얕":3565,"##㎜":3566,"##꽤":3567,"##㎎":3568,"##≫":3569,"##짊":3570,"##넸":3571,"##샀":3572,"##넋":3573,"##뚫":3574,"##뺐":3575,"##뱉":3576,"##곁":3577,"##㎖":3578,"##ℓ":3579,"##뵙":3580,"##섣":3581,"##뭣":3582,"##쨌":3583,"##꿋":3584,"##탔":3585,"##뉜":3586,"##띈":3587,"##훑":3588,"##뽐":3589,"##땄":3590,"##◈":3591,"##휩":3592,"##몄":3593,"##㎏":3594,"##됩":3595,"##꽉":3596,"##닳":3597,"##㎾":3598,"##㎥":3599,"으로":3600,"에서":3601,"한다":3602,"##니다":3603,"##00":3604,"에게":3605,"라고":3606,"까지":3607,"사람":3608,"지만":3609,"면서":3610,"아니":3611,"다는":3612,"우리":3613,"습니다":3614,"대한":3615,"20":3616,"는데":3617,"라는":3618,"된다":3619,"다고":3620,"때문":3621,"지난":3622,"그러":3623,"위해":3624,"생각":3625,"한국":3626,"19":3627,"부터":3628,"보다":3629,"10":3630,"지역":3631,"문제":3632,"그리":3633,"그런":3634,"자신":3635,"사업":3636,"경우":3637,"시간":3638,"이나":3639,"대해":3640,"통해":3641,"해야":3642,"기업":3643,"사회":3644,"시장":3645,"그렇":3646,"200":3647,"아이":3648,"201":3649,"따라":3650,"관계":3651,"함께":3652,"다른":3653,"하나":3654,"이상":3655,"정부":3656,"지금":3657,"대표":3658,"가능":3659,"가지":3660,"교육":3661,"세계":3662,"미국":3663,"이런":3664,"처럼":3665,"사실":3666,"시작":3667,"서울":3668,"그래":3669,"그리고":3670,"경제":3671,"도록":3672,"가장":3673,"필요":3674,"그러나":3675,"만들":3676,"어요":3677,"정도":3678,"경기":3679,"##지만":3680,"는다":3681,"들어":3682,"이번":3683,"위원":3684,"으면":3685,"해서":3686,"다시":3687,"지원":3688,"연구":3689,"중국":3690,"위한":3691,"##통령":3692,"하지만":3693,"문화":3694,"대통령":3695,"이제":3696,"관련":3697,"프로":3698,"모두":3699,"투자":3700,"사용":3701,"밝혔":3702,"상황":3703,"##니까":3704,"일본":3705,"어서":3706,"12":3707,"어떤":3708,"의원":3709,"정치":3710,"입니다":3711,"이렇":3712,"계획":3713,"마음":3714,"11":3715,"이후":3716,"개발":3717,"모든":3718,"다가":3719,"대학":3720,"그것":3721,"ㅋㅋ":3722,"기술":3723,"특히":3724,"국가":3725,"다음":3726,"거나":3727,"결과":3728,"많이":3729,"후보":3730,"사이":3731,"국민":3732,"지난해":3733,"이렇게":3734,"현재":3735,"국내":3736,"30":3737,"학교":3738,"조사":3739,"이야":3740,"최근":3741,"으며":3742,"활동":3743,"과정":3744,"중요":3745,"15":3746,"진행":3747,"산업":3748,"전문":3749,"올해":3750,"는지":3751,"새로":3752,"대상":3753,"다양":3754,"이야기":3755,"관리":3756,"너무":3757,"어떻":3758,"##er":3759,"도시":3760,"동안":3761,"나타":3762,"정보":3763,"학생":3764,"이미":3765,"회사":3766,"##대로":3767,"영화":3768,"민주":3769,"정책":3770,"이용":3771,"그래서":3772,"여기":3773,"평가":3774,"##000":3775,"나라":3776,"자기":3777,"모습":3778,"이유":3779,"보이":3780,"사랑":3781,"바로":3782,"금융":3783,"스타":3784,"설명":3785,"여러":3786,"처음":3787,"##스트":3788,"운영":3789,"다면":3790,"결정":3791,"아무":3792,"이어":3793,"##부터":3794,"자리":3795,"생활":3796,"내용":3797,"18":3798,"##주의":3799,"합니다":3800,"인간":3801,"의미":3802,"없이":3803,"한다는":3804,"제품":3805,"기록":3806,"관계자":3807,"여성":3808,"돌아":3809,"##비스":3810,"이날":3811,"운동":3812,"업체":3813,"당시":3814,"못하":3815,"또한":3816,"시키":3817,"그녀":3818,"오늘":3819,"어야":3820,"새로운":3821,"선수":3822,"방법":3823,"##on":3824,"환경":3825,"##어나":3826,"라며":3827,"주장":3828,"##운데":3829,"북한":3830,"예정":3831,"추진":3832,"더라":3833,"##시아":3834,"서비스":3835,"이러":3836,"삼성":3837,"최고":3838,"어떻게":3839,"물론":3840,"참여":3841,"현대":3842,"역사":3843,"만큼":3844,"같이":3845,"규모":3846,"가운데":3847,"계속":3848,"가격":3849,"나오":3850,"국제":3851,"경쟁":3852,"소리":3853,"시민":3854,"경찰":3855,"발전":3856,"기관":3857,"방송":3858,"선거":3859,"사건":3860,"준비":3861,"교수":3862,"그런데":3863,"관심":3864,"직접":3865,"기대":3866,"지방":3867,"감독":3868,"기준":3869,"회장":3870,"생산":3871,"어느":3872,"13":3873,"성장":3874,"어려":3875,"16":3876,"얘기":3877,"따르":3878,"##머니":3879,"여자":3880,"부분":3881,"아닌":3882,"중심":3883,"##인다":3884,"발생":3885,"상태":3886,"무엇":3887,"시대":3888,"효과":3889,"역시":3890,"제공":3891,"199":3892,"구성":3893,"보여":3894,"##in":3895,"판매":3896,"대구":3897,"ㅋㅋㅋ":3898,"부산":3899,"분석":3900,"상대":3901,"마련":3902,"국회":3903,"개인":3904,"변화":3905,"14":3906,"전체":3907,"100":3908,"25":3909,"발표":3910,"그렇게":3911,"확인":3912,"고객":3913,"요구":3914,"인지":3915,"아직":3916,"성공":3917,"수준":3918,"알려":3919,"이해":3920,"은행":3921,"행사":3922,"모르":3923,"노동":3924,"떨어":3925,"##랜드":3926,"##레이":3927,"대회":3928,"17":3929,"인데":3930,"이름":3931,"일반":3932,"자유":3933,"가족":3934,"인터":3935,"경영":3936,"더욱":3937,"자연":3938,"니까":3939,"얼마":3940,"정말":3941,"위원회":3942,"입장":3943,"##an":3944,"##그램":3945,"친구":3946,"센터":3947,"일부":3948,"전국":3949,"시설":3950,"포함":3951,"인가":3952,"50":3953,"조선":3954,"대해서":3955,"상품":3956,"기간":3957,"위해서":3958,"구조":3959,"소비":3960,"증가":3961,"공동":3962,"실제":3963,"작품":3964,"자동":3965,"프로그램":3966,"지적":3967,"단체":3968,"주민":3969,"노력":3970,"##버지":3971,"로서":3972,"달러":3973,"얼굴":3974,"해도":3975,"영향":3976,"최대":3977,"방식":3978,"이것":3979,"결국":3980,"지나":3981,"가치":3982,"강조":3983,"활용":3984,"##en":3985,"확대":3986,"존재":3987,"세상":3988,"피해":3989,"분야":3990,"당신":3991,"한편":3992,"건강":3993,"남자":3994,"책임":3995,"건설":3996,"##다는":3997,"조직":3998,"라면":3999,"대로":4000,"인사":4001,"나가":4002,"정신":4003,"##으며":4004,"역할":4005,"마다":4006,"제도":4007,"회의":4008,"전략":4009,"또는":4010,"특별":4011,"##거리":4012,"전망":4013,"현실":4014,"을까":4015,"먼저":4016,"##or":4017,"강화":4018,"사고":4019,"대부":4020,"는가":4021,"선택":4022,"만나":4023,"조금":4024,"##ti":4025,"자체":4026,"어린":4027,"주택":4028,"라도":4029,"찾아":4030,"한다고":4031,"사진":4032,"유지":4033,"미래":4034,"과학":4035,"기능":4036,"안전":4037,"21":4038,"외국":4039,"경험":4040,"밖에":4041,"예상":4042,"이루":4043,"못했":4044,"보험":4045,"공개":4046,"##소리":4047,"하루":4048,"해결":4049,"능력":4050,"병원":4051,"기자":4052,"24":4053,"대부분":4054,"##전히":4055,"아요":4056,"##리아":4057,"누구":4058,"여행":4059,"그룹":4060,"40":4061,"##al":4062,"관광":4063,"##진다":4064,"인천":4065,"어디":4066,"직원":4067,"목표":4068,"시스":4069,"정상":4070,"표현":4071,"해외":4072,"개선":4073,"드러":4074,"기존":4075,"공사":4076,"##es":4077,"현장":4078,"오후":4079,"거래":4080,"서로":4081,"그램":4082,"려고":4083,"##없이":4084,"올라":4085,"인정":4086,"보인다":4087,"비롯":4088,"##ar":4089,"아파":4090,"나온":4091,"못한":4092,"아버지":4093,"중앙":4094,"위기":4095,"행정":4096,"머리":4097,"공간":4098,"자동차":4099,"수사":4100,"광주":4101,"내려":4102,"##이트":4103,"22":4104,"로부터":4105,"개월":4106,"방문":4107,"아서":4108,"대비":4109,"따라서":4110,"마을":4111,"지속":4112,"기본":4113,"전화":4114,"기회":4115,"시스템":4116,"위원장":4117,"적용":4118,"엄마":4119,"계약":4120,"아야":4121,"##너지":4122,"지도":4123,"##린다":4124,"##마트":4125,"아주":4126,"실시":4127,"상승":4128,"주요":4129,"적극":4130,"느냐":4131,"예산":4132,"23":4133,"단계":4134,"반대":4135,"려는":4136,"추가":4137,"마지":4138,"거리":4139,"감사":4140,"도움":4141,"예술":4142,"고려":4143,"부담":4144,"업무":4145,"바람":4146,"판단":4147,"행동":4148,"음악":4149,"검찰":4150,"집중":4151,"아파트":4152,"바라":4153,"##동안":4154,"수익":4155,"치료":4156,"들어가":4157,"시즌":4158,"해당":4159,"언론":4160,"세요":4161,"배우":4162,"장관":4163,"거의":4164,"##이스":4165,"상당":4166,"으로써":4167,"게임":4168,"내년":4169,"##스로":4170,"우선":4171,"전쟁":4172,"이전":4173,"무슨":4174,"마지막":4175,"선생":4176,"작업":4177,"그냥":4178,"음식":4179,"브랜드":4180,"사장":4181,"통합":4182,"민주당":4183,"공연":4184,"이사":4185,"##자리":4186,"그때":4187,"행위":4188,"의견":4189,"차이":4190,"확보":4191,"##어난":4192,"조성":4193,"작가":4194,"설치":4195,"비판":4196,"아들":4197,"스스로":4198,"행복":4199,"협력":4200,"단지":4201,"전문가":4202,"의사":4203,"27":4204,"자료":4205,"보내":4206,"26":4207,"처리":4208,"시켜":4209,"동시":4210,"달리":4211,"비용":4212,"보호":4213,"대신":4214,"선정":4215,"더라도":4216,"으로서":4217,"조정":4218,"과거":4219,"공급":4220,"근데":4221,"나왔":4222,"어머니":4223,"유럽":4224,"기억":4225,"진짜":4226,"매우":4227,"198":4228,"28":4229,"평균":4230,"##디어":4231,"각각":4232,"순간":4233,"##he":4234,"그림":4235,"제대로":4236,"주변":4237,"말씀":4238,"문학":4239,"목소리":4240,"공부":4241,"부족":4242,"누리":4243,"움직":4244,"자금":4245,"의해":4246,"거든":4247,"분위":4248,"언제":4249,"위험":4250,"인터넷":4251,"글로":4252,"보도":4253,"발견":4254,"어렵":4255,"이익":4256,"만든":4257,"스러":4258,"안정":4259,"인식":4260,"수출":4261,"스럽":4262,"사무":4263,"부모":4264,"주인":4265,"가까":4266,"매출":4267,"제작":4268,"대책":4269,"결혼":4270,"##나라":4271,"복지":4272,"의식":4273,"제시":4274,"보였":4275,"글로벌":4276,"##른다":4277,"분위기":4278,"지요":4279,"공격":4280,"##전자":4281,"이르":4282,"차지":4283,"방안":4284,"분명":4285,"전통":4286,"지구":4287,"에너지":4288,"그럼":4289,"관한":4290,"앞서":4291,"환자":4292,"얼마나":4293,"소비자":4294,"통신":4295,"전자":4296,"목적":4297,"우려":4298,"예요":4299,"체험":4300,"가구":4301,"반면":4302,"열린":4303,"느낌":4304,"영업":4305,"오히":4306,"이뤄":4307,"그대로":4308,"오히려":4309,"주식":4310,"##가지":4311,"지지":4312,"인기":4313,"기다":4314,"위치":4315,"제기":4316,"비교":4317,"규정":4318,"전시":4319,"스마트":4320,"롯데":4321,"핵심":4322,"LG":4323,"출신":4324,"한테":4325,"디자":4326,"논의":4327,"의료":4328,"충분":4329,"생명":4330,"도입":4331,"피부":4332,"신문":4333,"형태":4334,"시행":4335,"종합":4336,"따른":4337,"질문":4338,"시기":4339,"60":4340,"인상":4341,"공장":4342,"29":4343,"모델":4344,"소개":4345,"중소":4346,"##st":4347,"잖아":4348,"교통":4349,"영국":4350,"지식":4351,"더니":4352,"차례":4353,"비해":4354,"나이":4355,"고자":4356,"장애":4357,"드라":4358,"일정":4359,"네요":4360,"제주":4361,"광고":4362,"전혀":4363,"방향":4364,"##ic":4365,"가정":4366,"거기":4367,"##기업":4368,"마치":4369,"신청":4370,"지난달":4371,"현상":4372,"장기":4373,"프랑":4374,"##이어":4375,"##어지":4376,"이게":4377,"##으나":4378,"업계":4379,"##아들":4380,"TV":4381,"검사":4382,"대화":4383,"SK":4384,"노래":4385,"잘못":4386,"힘들":4387,"참석":4388,"높이":4389,"소설":4390,"대출":4391,"아름":4392,"희망":4393,"##리스":4394,"가진":4395,"카드":4396,"오전":4397,"##아가":4398,"아래":4399,"부동":4400,"펀드":4401,"다르":4402,"가져":4403,"독일":4404,"아침":4405,"에선":4406,"인물":4407,"사례":4408,"##it":4409,"개혁":4410,"개최":4411,"유치":4412,"그만":4413,"기획":4414,"최초":4415,"걱정":4416,"기사":4417,"이동":4418,"성과":4419,"조건":4420,"각종":4421,"청소":4422,"재정":4423,"시절":4424,"혁신":4425,"소득":4426,"인제":4427,"대전":4428,"나타났":4429,"으나":4430,"##om":4431,"##라인":4432,"합의":4433,"공공":4434,"수도":4435,"주목":4436,"연결":4437,"이곳":4438,"요즘":4439,"##레스":4440,"습니까":4441,"고민":4442,"수요":4443,"청와":4444,"시험":4445,"청와대":4446,"전기":4447,"정당":4448,"자본":4449,"개념":4450,"등장":4451,"유명":4452,"혐의":4453,"부문":4454,"일단":4455,"거든요":4456,"참가":4457,"부동산":4458,"체계":4459,"자산":4460,"에요":4461,"협의":4462,"다니":4463,"차량":4464,"구체":4465,"리그":4466,"2000":4467,"수입":4468,"사상":4469,"##무원":4470,"##포츠":4471,"도로":4472,"담당":4473,"대형":4474,"준다":4475,"시청":4476,"정확":4477,"버리":4478,"디자인":4479,"연기":4480,"훈련":4481,"##인트":4482,"아마":4483,"교사":4484,"단순":4485,"세대":4486,"듯이":4487,"느끼":4488,"내부":4489,"##at":4490,"가슴":4491,"선보":4492,"논란":4493,"##el":4494,"어린이":4495,"민족":4496,"으로부터":4497,"아시아":4498,"가입":4499,"재판":4500,"올림":4501,"사라":4502,"나무":4503,"남편":4504,"체제":4505,"대응":4506,"프랑스":4507,"원인":4508,"자원":4509,"검토":4510,"선물":4511,"건물":4512,"분양":4513,"오래":4514,"으니":4515,"##어들":4516,"감소":4517,"##이터":4518,"본부":4519,"반영":4520,"조치":4521,"구축":4522,"진출":4523,"금리":4524,"경남":4525,"31":4526,"보고":4527,"70":4528,"그동안":4529,"부정":4530,"인해":4531,"전달":4532,"어려운":4533,"무대":4534,"##한다":4535,"실제로":4536,"차원":4537,"나와":4538,"출시":4539,"인도":4540,"불과":4541,"인생":4542,"소속":4543,"이하":4544,"공식":4545,"증권":4546,"맛있":4547,"주제":4548,"해요":4549,"일상":4550,"감정":4551,"반응":4552,"##수록":4553,"평화":4554,"자세":4555,"스포츠":4556,"한다면":4557,"전환":4558,"본격":4559,"청년":4560,"우승":4561,"여름":4562,"##므로":4563,"국정":4564,"기반":4565,"##자기":4566,"의회":4567,"고용":4568,"올림픽":4569,"하늘":4570,"비슷":4571,"다만":4572,"남성":4573,"만드":4574,"##반기":4575,"어도":4576,"지켜":4577,"##이크":4578,"아내":4579,"##am":4580,"설립":4581,"회복":4582,"##ing":4583,"넘어":4584,"여부":4585,"지급":4586,"분기":4587,"파악":4588,"확실":4589,"마찬":4590,"여전히":4591,"울산":4592,"##tion":4593,"이끌":4594,"##BS":4595,"공원":4596,"마찬가지":4597,"현지":4598,"노조":4599,"그게":4600,"세기":4601,"형성":4602,"규제":4603,"등록":4604,"기초":4605,"##이지":4606,"성적":4607,"학습":4608,"영어":4609,"살펴":4610,"떠나":4611,"개정":4612,"모양":4613,"받아들":4614,"으면서":4615,"경기도":4616,"활성":4617,"나타나":4618,"##학교":4619,"대선":4620,"바이":4621,"구매":4622,"197":4623,"박근":4624,"신경":4625,"선발":4626,"고요":4627,"외국인":4628,"##이션":4629,"교회":4630,"##ol":4631,"추천":4632,"수행":4633,"연합":4634,"혼자":4635,"우수":4636,"제한":4637,"##is":4638,"소재":4639,"##드시":4640,"승리":4641,"반드시":4642,"공정":4643,"이거":4644,"포인트":4645,"일자리":4646,"해석":4647,"보장":4648,"일어나":4649,"투표":4650,"임금":4651,"박근혜":4652,"제외":4653,"비율":4654,"코스":4655,"의지":4656,"려면":4657,"이미지":4658,"노인":4659,"기념":4660,"갈등":4661,"드라마":4662,"혹은":4663,"500":4664,"공무원":4665,"화장":4666,"지하":4667,"만족":4668,"대중":4669,"35":4670,"집단":4671,"부인":4672,"달라":4673,"정권":4674,"학년":4675,"최종":4676,"약속":4677,"부르":4678,"주도":4679,"##다고":4680,"80":4681,"당연":4682,"언어":4683,"보수":4684,"민간":4685,"아름다":4686,"2010":4687,"방침":4688,"##ㅋㅋ":4689,"식품":4690,"러시아":4691,"자주":4692,"오른":4693,"재미":4694,"요청":4695,"항공":4696,"협상":4697,"##은행":4698,"통일":4699,"시도":4700,"##ur":4701,"올리":4702,"정리":4703,"내놓":4704,"2012":4705,"매일":4706,"께서":4707,"남북":4708,"은데":4709,"축구":4710,"##et":4711,"스타일":4712,"훨씬":4713,"실패":4714,"나서":4715,"그러니까":4716,"하락":4717,"군사":4718,"중소기업":4719,"인구":4720,"경북":4721,"시킨":4722,"도전":4723,"축제":4724,"바라보":4725,"영상":4726,"권력":4727,"가르":4728,"불안":4729,"##il":4730,"출연":4731,"제안":4732,"연구원":4733,"변호":4734,"겨울":4735,"진정":4736,"소통":4737,"##스터":4738,"통한":4739,"유통":4740,"항상":4741,"절차":4742,"주로":4743,"보유":4744,"이론":4745,"##nd":4746,"저녁":4747,"독립":4748,"굉장":4749,"지정":4750,"기분":4751,"제조":4752,"호텔":4753,"알려졌":4754,"오르":4755,"실적":4756,"협회":4757,"대체":4758,"월드":4759,"작용":4760,"최소":4761,"홍보":4762,"갑자기":4763,"원칙":4764,"성격":4765,"대답":4766,"외교":4767,"공항":4768,"법원":4769,"경쟁력":4770,"빠져":4771,"수술":4772,"조차":4773,"영역":4774,"프리":4775,"심리":4776,"속도":4777,"시켰":4778,"원장":4779,"고개":4780,"불구":4781,"그래도":4782,"종교":4783,"요소":4784,"연속":4785,"회원":4786,"사항":4787,"둘러":4788,"##운드":4789,"토론":4790,"엄청":4791,"##다가":4792,"건축":4793,"근로":4794,"삼성전자":4795,"스러운":4796,"했으며":4797,"동물":4798,"일으":4799,"특성":4800,"직장":4801,"창조":4802,"신고":4803,"절대":4804,"시각":4805,"죽음":4806,"봉사":4807,"거쳐":4808,"수상":4809,"불러":4810,"특정":4811,"세력":4812,"특징":4813,"강력":4814,"미술":4815,"취업":4816,"하나님":4817,"사태":4818,"바다":4819,"회담":4820,"골프":4821,"철학":4822,"만약":4823,"창업":4824,"빨리":4825,"의혹":4826,"마케":4827,"지배":4828,"##스크":4829,"여야":4830,"열리":4831,"나누":4832,"뉴스":4833,"므로":4834,"선언":4835,"는데요":4836,"2011":4837,"전해":4838,"작년":4839,"굉장히":4840,"됩니다":4841,"2014":4842,"일까":4843,"##어진":4844,"내리":4845,"불법":4846,"태도":4847,"수업":4848,"마케팅":4849,"으려":4850,"인수":4851,"고통":4852,"체육":4853,"청소년":4854,"사전":4855,"측면":4856,"알아":4857,"자녀":4858,"인력":4859,"덧붙":4860,"여론":4861,"보통":4862,"총리":4863,"주문":4864,"of":4865,"누가":4866,"스트":4867,"##민국":4868,"접근":4869,"수원":4870,"차별":4871,"바탕":4872,"재산":4873,"2009":4874,"야구":4875,"표정":4876,"소식":4877,"돌아가":4878,"유리":4879,"물질":4880,"설계":4881,"초등":4882,"근무":4883,"쇼핑":4884,"라이":4885,"##스타":4886,"##요일":4887,"##스코":4888,"대한민국":4889,"##라이":4890,"된다는":4891,"##디오":4892,"정의":4893,"과제":4894,"2008":4895,"하이":4896,"더불":4897,"신뢰":4898,"무역":4899,"##심히":4900,"혁명":4901,"드리":4902,"##ch":4903,"##ㅠㅠ":4904,"구속":4905,"##어났":4906,"2013":4907,"생기":4908,"2015":4909,"소유":4910,"향후":4911,"마리":4912,"포기":4913,"심사":4914,"지키":4915,"본다":4916,"제일":4917,"금액":4918,"세월":4919,"교과":4920,"주의":4921,"으니까":4922,"##우스":4923,"심각":4924,"나온다":4925,"전했":4926,"커피":4927,"연금":4928,"법인":4929,"부부":4930,"졸업":4931,"자치":4932,"조합":4933,"촬영":4934,"장소":4935,"출발":4936,"저희":4937,"범죄":4938,"버스":4939,"약간":4940,"계기":4941,"잖아요":4942,"비중":4943,"확정":4944,"##ed":4945,"언급":4946,"사망":4947,"1000":4948,"근거":4949,"##BC":4950,"잠시":4951,"효율":4952,"프로젝":4953,"##무리":4954,"나섰":4955,"지사":4956,"주가":4957,"발언":4958,"제출":4959,"통과":4960,"카페":4961,"신용":4962,"거부":4963,"중단":4964,"##러스":4965,"달려":4966,"안타":4967,"김정":4968,"강원":4969,"인근":4970,"##다보":4971,"느껴":4972,"완성":4973,"##나무":4974,"196":4975,"프로젝트":4976,"실천":4977,"상담":4978,"그랬":4979,"가득":4980,"45":4981,"향해":4982,"할인":4983,"32":4984,"여러분":4985,"이란":4986,"올랐":4987,"완전히":4988,"가량":4989,"외부":4990,"달성":4991,"전형":4992,"살아":4993,"전남":4994,"눈물":4995,"300":4996,"등급":4997,"그리스":4998,"36":4999,"고등":5000,"온라인":5001,"예방":5002,"본인":5003,"혜택":5004,"해양":5005,"스마트폰":5006,"임대":5007,"in":5008,"마시":5009,"33":5010,"그럴":5011,"당국":5012,"바꾸":5013,"오랜":5014,"앞두":5015,"노동자":5016,"##벤트":5017,"열심히":5018,"창출":5019,"소송":5020,"##니스":5021,"상상":5022,"변호사":5023,"유일":5024,"이벤트":5025,"마무리":5026,"##거운":5027,"강한":5028,"아프":5029,"5000":5030,"장면":5031,"다리":5032,"그러면":5033,"기다리":5034,"강남":5035,"불리":5036,"금지":5037,"##페인":5038,"바뀌":5039,"지수":5040,"시킬":5041,"재단":5042,"화학":5043,"겁니다":5044,"로운":5045,"버렸":5046,"충분히":5047,"##텐츠":5048,"##od":5049,"리더":5050,"의무":5051,"들여":5052,"떨어지":5053,"원래":5054,"000":5055,"나머":5056,"##ou":5057,"놀라":5058,"the":5059,"펼쳐":5060,"나머지":5061,"전력":5062,"할지":5063,"식사":5064,"수용":5065,"##의원":5066,"아도":5067,"통화":5068,"미치":5069,"##서관":5070,"덧붙였":5071,"법률":5072,"평소":5073,"매장":5074,"을지":5075,"뭔가":5076,"아무리":5077,"대하":5078,"도착":5079,"##le":5080,"요리":5081,"의한":5082,"독자":5083,"서울시":5084,"매년":5085,"신규":5086,"요인":5087,"아빠":5088,"밝혀":5089,"주인공":5090,"흔들":5091,"컴퓨":5092,"계열":5093,"##학생":5094,"90":5095,"전반":5096,"초기":5097,"##화점":5098,"##이드":5099,"동일":5100,"구나":5101,"자는":5102,"웃음":5103,"이때":5104,"KT":5105,"자격":5106,"괜찮":5107,"인터뷰":5108,"당선":5109,"투입":5110,"권리":5111,"이른":5112,"직업":5113,"어려움":5114,"배경":5115,"전용":5116,"나선":5117,"##라도":5118,"상징":5119,"투자자":5120,"완전":5121,"2007":5122,"##프트":5123,"미디어":5124,"긍정":5125,"##고기":5126,"헌법":5127,"변경":5128,"배치":5129,"의장":5130,"미리":5131,"학부":5132,"메시":5133,"부장":5134,"아닐":5135,"그거":5136,"대사":5137,"중간":5138,"채용":5139,"한나라":5140,"향상":5141,"한나라당":5142,"형식":5143,"매력":5144,"##ation":5145,"확산":5146,"구입":5147,"벗어나":5148,"라인":5149,"불편":5150,"통해서":5151,"박사":5152,"콘텐츠":5153,"케이":5154,"연구소":5155,"작성":5156,"꾸준":5157,"문재":5158,"베이":5159,"구요":5160,"##re":5161,"동아":5162,"이어지":5163,"맞춰":5164,"논리":5165,"진단":5166,"컴퓨터":5167,"집행":5168,"물건":5169,"부여":5170,"육성":5171,"보상":5172,"철저":5173,"특수":5174,"야당":5175,"패션":5176,"사과":5177,"나갈":5178,"수석":5179,"사정":5180,"시점":5181,"빠르":5182,"체결":5183,"동의":5184,"인권":5185,"데이터":5186,"연계":5187,"34":5188,"연출":5189,"수학":5190,"공유":5191,"선진":5192,"살펴보":5193,"기울":5194,"인한":5195,"##as":5196,"복합":5197,"한계":5198,"실현":5199,"흐름":5200,"휴대":5201,"반복":5202,"폭력":5203,"그린":5204,"부지":5205,"##다면":5206,"##바일":5207,"우주":5208,"아름다운":5209,"38":5210,"전하":5211,"아닌가":5212,"채권":5213,"2016":5214,"똑같":5215,"연장":5216,"교육청":5217,"모바일":5218,"국토":5219,"부상":5220,"점점":5221,"##리카":5222,"입주":5223,"국방":5224,"주말":5225,"자랑":5226,"상호":5227,"결코":5228,"도와":5229,"위반":5230,"알리":5231,"수단":5232,"봐야":5233,"네트":5234,"균형":5235,"다며":5236,"올려":5237,"와서":5238,"든지":5239,"보고서":5240,"텔레":5241,"했으나":5242,"가리":5243,"설정":5244,"##ent":5245,"대변":5246,"토지":5247,"예비":5248,"브라":5249,"판결":5250,"극복":5251,"기구":5252,"할머니":5253,"고기":5254,"생태":5255,"시선":5256,"종목":5257,"당장":5258,"##일보":5259,"무료":5260,"마저":5261,"과연":5262,"학원":5263,"##20":5264,"적절":5265,"백화점":5266,"실험":5267,"만난":5268,"가을":5269,"줄이":5270,"사이트":5271,"태양":5272,"기계":5273,"이달":5274,"는다는":5275,"이명":5276,"누군":5277,"##50":5278,"주체":5279,"된다고":5280,"긴장":5281,"종류":5282,"맛집":5283,"모집":5284,"그건":5285,"의도":5286,"무기":5287,"기여":5288,"의심":5289,"관객":5290,"나중":5291,"추구":5292,"##페이지":5293,"순위":5294,"##환경":5295,"홈페이지":5296,"청구":5297,"전년":5298,"모아":5299,"떠올":5300,"점검":5301,"메시지":5302,"타이":5303,"고양":5304,"보건":5305,"연대":5306,"실장":5307,"ㅎㅎ":5308,"수많":5309,"구분":5310,"걸쳐":5311,"##반도":5312,"무리":5313,"지시":5314,"편지":5315,"37":5316,"국회의원":5317,"농업":5318,"모른다":5319,"가까이":5320,"간단":5321,"원내":5322,"충격":5323,"국립":5324,"시리":5325,"동기":5326,"갖추":5327,"증거":5328,"아동":5329,"궁금":5330,"상당히":5331,"절반":5332,"정비":5333,"두려":5334,"이탈":5335,"월드컵":5336,"당하":5337,"연간":5338,"##간다":5339,"해소":5340,"##워크":5341,"그곳":5342,"아기":5343,"편의":5344,"통제":5345,"따뜻":5346,"위협":5347,"늘어나":5348,"진실":5349,"과장":5350,"표시":5351,"##가락":5352,"운용":5353,"교체":5354,"허용":5355,"진보":5356,"세트":5357,"비밀":5358,"시인":5359,"경향":5360,"완화":5361,"자율":5362,"소장":5363,"스토":5364,"인재":5365,"뿌리":5366,"이건":5367,"범위":5368,"뉴욕":5369,"바닥":5370,"공약":5371,"움직이":5372,"가까운":5373,"지상":5374,"예전":5375,"피해자":5376,"즐기":5377,"수수":5378,"플레이":5379,"모임":5380,"##럼프":5381,"단위":5382,"의하":5383,"세금":5384,"다이어":5385,"요금":5386,"운전":5387,"불가":5388,"IT":5389,"했었":5390,"계산":5391,"레이":5392,"메뉴":5393,"어쩌":5394,"반발":5395,"고급":5396,"왜냐":5397,"안보":5398,"방지":5399,"대단":5400,"자극":5401,"오픈":5402,"그걸":5403,"지자":5404,"부대":5405,"한반도":5406,"부처":5407,"합리":5408,"전부":5409,"수정":5410,"돌려":5411,"새롭":5412,"최저":5413,"모여":5414,"위하":5415,"출전":5416,"내일":5417,"출판":5418,"디지":5419,"다소":5420,"장비":5421,"총선":5422,"인하":5423,"장치":5424,"자식":5425,"별로":5426,"총장":5427,"결론":5428,"강의":5429,"and":5430,"확장":5431,"들어갔":5432,"##ag":5433,"다섯":5434,"대우":5435,"##산물":5436,"벌이":5437,"면은":5438,"벌써":5439,"가수":5440,"나요":5441,"전개":5442,"공단":5443,"주차":5444,"생긴":5445,"최선":5446,"명령":5447,"흘러":5448,"들어오":5449,"주일":5450,"관광객":5451,"힘든":5452,"상처":5453,"출마":5454,"나올":5455,"교류":5456,"어울":5457,"대학교":5458,"마침":5459,"어깨":5460,"##러운":5461,"비행":5462,"##말로":5463,"발행":5464,"상관":5465,"부품":5466,"어찌":5467,"##어날":5468,"장점":5469,"실력":5470,"2006":5471,"할까":5472,"디지털":5473,"트럼프":5474,"##메라":5475,"창원":5476,"구역":5477,"밝히":5478,"정기":5479,"응답":5480,"끌어":5481,"연주":5482,"실질":5483,"공감":5484,"인증":5485,"천만":5486,"##ac":5487,"보조":5488,"공천":5489,"에스":5490,"역량":5491,"공기":5492,"근대":5493,"나아가":5494,"싸움":5495,"식당":5496,"철도":5497,"예측":5498,"네트워크":5499,"부드":5500,"움직임":5501,"연습":5502,"비상":5503,"질환":5504,"비난":5505,"무시":5506,"끝나":5507,"이내":5508,"고향":5509,"39":5510,"근본":5511,"##구요":5512,"공동체":5513,"고속":5514,"지자체":5515,"##란다":5516,"어떠":5517,"추정":5518,"덕분":5519,"제거":5520,"누군가":5521,"가로":5522,"시리즈":5523,"부탁":5524,"정체":5525,"한데":5526,"지점":5527,"아닙":5528,"둘째":5529,"강하":5530,"자전":5531,"관점":5532,"투쟁":5533,"완벽":5534,"어제":5535,"사업자":5536,"거듭":5537,"희생":5538,"따로":5539,"점수":5540,"충남":5541,"##난다":5542,"기부":5543,"55":5544,"##아지":5545,"회견":5546,"품질":5547,"코리아":5548,"48":5549,"김영":5550,"이명박":5551,"들려":5552,"정규":5553,"##이너":5554,"예수":5555,"##니아":5556,"게다가":5557,"42":5558,"빠른":5559,"유형":5560,"매각":5561,"동생":5562,"새벽":5563,"손해":5564,"해졌":5565,"그만큼":5566,"지분":5567,"세우":5568,"친환경":5569,"문재인":5570,"조용":5571,"국장":5572,"이기":5573,"평생":5574,"눈길":5575,"면적":5576,"베트":5577,"처벌":5578,"군요":5579,"강제":5580,"감안":5581,"크기":5582,"경주":5583,"명예":5584,"필수":5585,"분명히":5586,"분리":5587,"단어":5588,"3000":5589,"물리":5590,"43":5591,"근로자":5592,"정해":5593,"원자":5594,"협약":5595,"민주주의":5596,"재료":5597,"저축":5598,"동네":5599,"뛰어":5600,"동료":5601,"대안":5602,"이성":5603,"관람":5604,"통하":5605,"에게서":5606,"현대차":5607,"안내":5608,"배출":5609,"##ro":5610,"별도":5611,"돼야":5612,"이웃":5613,"이자":5614,"내세":5615,"꾸준히":5616,"개국":5617,"한화":5618,"으므로":5619,"41":5620,"올라가":5621,"이래":5622,"더라고":5623,"동원":5624,"투어":5625,"복잡":5626,"머물":5627,"폐지":5628,"탄생":5629,"MBC":5630,"##공사":5631,"전투":5632,"전면":5633,"공모":5634,"##사자":5635,"승부":5636,"기독":5637,"언제나":5638,"194":5639,"##하면":5640,"KBS":5641,"일제":5642,"결합":5643,"지도자":5644,"거짓":5645,"올렸":5646,"##회장":5647,"수립":5648,"그려":5649,"학부모":5650,"부채":5651,"자전거":5652,"2005":5653,"도덕":5654,"미소":5655,"메이":5656,"##ri":5657,"단일":5658,"수능":5659,"아까":5660,"미사":5661,"아이디어":5662,"보증":5663,"##오르":5664,"2017":5665,"캐릭":5666,"유사":5667,"개입":5668,"경계":5669,"44":5670,"언니":5671,"##준다":5672,"블랙":5673,"카메라":5674,"실수":5675,"크리스":5676,"팀장":5677,"발굴":5678,"비즈":5679,"후반":5680,"65":5681,"거대":5682,"애플":5683,"국무":5684,"키우":5685,"서울대":5686,"캐릭터":5687,"한국인":5688,"처분":5689,"발휘":5690,"나눠":5691,"냄새":5692,"사내":5693,"혹시":5694,"법안":5695,"너무나":5696,"감각":5697,"영양":5698,"그저":5699,"문자":5700,"유가":5701,"학자":5702,"다녀":5703,"여유":5704,"짜리":5705,"아무런":5706,"주년":5707,"촉구":5708,"주위":5709,"베트남":5710,"도서관":5711,"버린":5712,"대리":5713,"자면":5714,"##대표":5715,"그날":5716,"집안":5717,"연락":5718,"##us":5719,"좋아":5720,"물러":5721,"화려":5722,"당연히":5723,"고서":5724,"석유":5725,"조기":5726,"원리":5727,"원전":5728,"46":5729,"번호":5730,"대법":5731,"통계":5732,"소녀":5733,"아울":5734,"오늘날":5735,"맞추":5736,"내렸":5737,"부자":5738,"업종":5739,"입학":5740,"질서":5741,"진입":5742,"깊이":5743,"##프라":5744,"채널":5745,"##ad":5746,"저자":5747,"개방":5748,"CE":5749,"##센트":5750,"시위":5751,"보냈":5752,"걸어":5753,"구간":5754,"후원":5755,"습관":5756,"물량":5757,"사실상":5758,"고교":5759,"이라":5760,"2004":5761,"멀리":5762,"통상":5763,"투명":5764,"성분":5765,"떨어진":5766,"프리미":5767,"비록":5768,"제목":5769,"진다":5770,"캠프":5771,"매체":5772,"기독교":5773,"다행":5774,"다루":5775,"선고":5776,"개편":5777,"##ec":5778,"주거":5779,"이외":5780,"분류":5781,"그니까":5782,"박물":5783,"2018":5784,"출범":5785,"어른":5786,"The":5787,"2002":5788,"날씨":5789,"불만":5790,"못해":5791,"다이어트":5792,"갖춘":5793,"현금":5794,"정원":5795,"노선":5796,"흥미":5797,"47":5798,"파괴":5799,"허리":5800,"형사":5801,"##시오":5802,"##지어":5803,"윤리":5804,"400":5805,"가스":5806,"생겼":5807,"취지":5808,"그러므로":5809,"슈퍼":5810,"검증":5811,"상반기":5812,"##TA":5813,"손실":5814,"##뮤니":5815,"소프트":5816,"투수":5817,"접수":5818,"##라스":5819,"커뮤니":5820,"세워":5821,"훌륭":5822,"취임":5823,"기도":5824,"건너":5825,"왜냐하면":5826,"##un":5827,"직후":5828,"첨단":5829,"추세":5830,"##em":5831,"아쉬":5832,"만났":5833,"치열":5834,"설득":5835,"49":5836,"담배":5837,"사무실":5838,"52":5839,"텐데":5840,"곳곳":5841,"놀이":5842,"포항":5843,"유도":5844,"아예":5845,"개별":5846,"본질":5847,"권한":5848,"오빠":5849,"포스코":5850,"##⠀⠀":5851,"느낄":5852,"##바로":5853,"조절":5854,"이른바":5855,"##리어":5856,"하반기":5857,"옛날":5858,"양성":5859,"내게":5860,"이랑":5861,"인류":5862,"##아버지":5863,"기타":5864,"고등학교":5865,"감동":5866,"열정":5867,"기에":5868,"지휘":5869,"엄청난":5870,"홈런":5871,"부회장":5872,"네네":5873,"선호":5874,"신체":5875,"개성":5876,"사유":5877,"옮겨":5878,"##으니":5879,"자고":5880,"거주":5881,"몰랐":5882,"조심":5883,"승인":5884,"나갔":5885,"대기":5886,"화장품":5887,"안녕":5888,"공포":5889,"빠지":5890,"건립":5891,"지닌":5892,"테이":5893,"허가":5894,"생존":5895,"박물관":5896,"제재":5897,"계층":5898,"부서":5899,"발달":5900,"동반":5901,"서구":5902,"마르":5903,"KB":5904,"##어져":5905,"연극":5906,"스트레스":5907,"전공":5908,"이재":5909,"바꿔":5910,"##리트":5911,"악화":5912,"즐길":5913,"##피스":5914,"경선":5915,"첫째":5916,"떨어져":5917,"위안":5918,"##ot":5919,"생겨":5920,"##메달":5921,"고위":5922,"##케이션":5923,"기소":5924,"비즈니스":5925,"심지어":5926,"증상":5927,"다수":5928,"걸음":5929,"살아가":5930,"상장":5931,"51":5932,"##ow":5933,"임시":5934,"끊임":5935,"최대한":5936,"타임":5937,"비전":5938,"운명":5939,"활약":5940,"##리오":5941,"폭발":5942,"서민":5943,"일찍":5944,"##다른":5945,"깨끗":5946,"소년":5947,"75":5948,"압박":5949,"표준":5950,"매수":5951,"이승":5952,"설비":5953,"바르":5954,"지내":5955,"의문":5956,"멤버":5957,"점심":5958,"초반":5959,"혼란":5960,"못할":5961,"상대방":5962,"스테":5963,"유기":5964,"줄어들":5965,"남녀":5966,"다이":5967,"##세요":5968,"키워":5969,"주관":5970,"취소":5971,"화제":5972,"뛰어난":5973,"자꾸":5974,"전날":5975,"대변인":5976,"원내대표":5977,"여인":5978,"종이":5979,"돌파":5980,"편안":5981,"##ww":5982,"파리":5983,"맞춤":5984,"www":5985,"가졌":5986,"선배":5987,"던지":5988,"점차":5989,"클럽":5990,"2003":5991,"화면":5992,"아르":5993,"53":5994,"보낸":5995,"돌아오":5996,"##마자":5997,"재미있":5998,"매매":5999,"컬러":6000,"기기":6001,"시원":6002,"바란다":6003,"풍부":6004,"화재":6005,"축소":6006,"단기":6007,"시내":6008,"195":6009,"인공":6010,"미군":6011,"여건":6012,"##다란":6013,"군대":6014,"매달":6015,"임명":6016,"밝힌":6017,"학과":6018,"논문":6019,"주력":6020,"크림":6021,"성인":6022,"193":6023,"육아":6024,"##어졌":6025,"##ood":6026,"타자":6027,"이뤄지":6028,"택시":6029,"서류":6030,"전제":6031,"뮤지":6032,"심장":6033,"##ig":6034,"드러내":6035,"신설":6036,"이슈":6037,"보안":6038,"가게":6039,"부진":6040,"단순히":6041,"소중":6042,"해진":6043,"##다니":6044,"오염":6045,"개막":6046,"합격":6047,"당초":6048,"고정":6049,"소화":6050,"여당":6051,"구단":6052,"교과서":6053,"역대":6054,"스님":6055,"54":6056,"돼지":6057,"수비":6058,"활발":6059,"살리":6060,"##ter":6061,"##러리":6062,"취하":6063,"지니":6064,"자마자":6065,"반도":6066,"아울러":6067,"연말":6068,"모자":6069,"어쨌":6070,"##구나":6071,"의존":6072,"##으면":6073,"순수":6074,"느라":6075,"이탈리아":6076,"나쁜":6077,"취재":6078,"150":6079,"찾아가":6080,"##란드":6081,"대장":6082,"56":6083,"인프라":6084,"시티":6085,"신화":6086,"재무":6087,"소방":6088,"퍼센트":6089,"솔직":6090,"규칙":6091,"단독":6092,"무상":6093,"협의회":6094,"공직":6095,"영원":6096,"공통":6097,"임원":6098,"검색":6099,"##터리":6100,"##ess":6101,"59":6102,"수십":6103,"클래":6104,"참고":6105,"되게":6106,"광장":6107,"분노":6108,"편집":6109,"제국":6110,"지향":6111,"위주":6112,"##공업":6113,"##직원":6114,"명확":6115,"녹색":6116,"대학생":6117,"오리":6118,"제정":6119,"조각":6120,"측정":6121,"유엔":6122,"집회":6123,"전세":6124,"##og":6125,"신세":6126,"매입":6127,"받아들이":6128,"목숨":6129,"독서":6130,"흐르":6131,"자라":6132,"물가":6133,"맥주":6134,"해운":6135,"꺼내":6136,"펼치":6137,"두산":6138,"초청":6139,"비리":6140,"녀석":6141,"끝내":6142,"판사":6143,"자아":6144,"미안":6145,"면접":6146,"사법":6147,"경고":6148,"방어":6149,"용기":6150,"에이":6151,"선박":6152,"변동":6153,"인정받":6154,"초대":6155,"하고":6156,"노무":6157,"호흡":6158,"이행":6159,"다운":6160,"아우":6161,"여수":6162,"##회사":6163,"공산":6164,"몰라":6165,"조언":6166,"법정":6167,"일종":6168,"관찰":6169,"##란히":6170,"피하":6171,"줘야":6172,"##은이":6173,"##교육":6174,"문제점":6175,"걸리":6176,"경력":6177,"대가":6178,"인원":6179,"순환":6180,"점유":6181,"구하":6182,"##어도":6183,"광역":6184,"##세대":6185,"나름":6186,"완료":6187,"CEO":6188,"가난":6189,"##id":6190,"기아":6191,"상업":6192,"저지":6193,"숫자":6194,"마주":6195,"잠재":6196,"사원":6197,"편성":6198,"차단":6199,"성향":6200,"학문":6201,"자살":6202,"저렴":6203,"떨어졌":6204,"노출":6205,"이스":6206,"##티브":6207,"포장":6208,"이사장":6209,"실행":6210,"데뷔":6211,"제약":6212,"증명":6213,"흔히":6214,"침체":6215,"가동":6216,"당했":6217,"드러나":6218,"중학교":6219,"회계":6220,"미사일":6221,"자네":6222,"아이템":6223,"느꼈":6224,"##ul":6225,"작전":6226,"##워서":6227,"사물":6228,"수시":6229,"##으로":6230,"com":6231,"실업":6232,"복귀":6233,"파트":6234,"가끔":6235,"극장":6236,"##친다":6237,"1990":6238,"신분":6239,"연수":6240,"데이":6241,"늘리":6242,"도심":6243,"청장":6244,"호주":6245,"강원도":6246,"##담회":6247,"조작":6248,"챔피":6249,"호소":6250,"57":6251,"살인":6252,"기원":6253,"저항":6254,"즐거":6255,"##ce":6256,"김치":6257,"무릎":6258,"예고":6259,"사기":6260,"58":6261,"문장":6262,"이틀":6263,"더라구요":6264,"이루어지":6265,"나타내":6266,"견해":6267,"특허":6268,"답변":6269,"적합":6270,"부과":6271,"전북":6272,"해방":6273,"양식":6274,"취득":6275,"채택":6276,"형제":6277,"황제":6278,"커다란":6279,"진술":6280,"커지":6281,"심의":6282,"결제":6283,"##NS":6284,"조명":6285,"지주":6286,"농민":6287,"만남":6288,"과목":6289,"사라지":6290,"무려":6291,"##마디":6292,"##플레이":6293,"예약":6294,"상위":6295,"##카드":6296,"득점":6297,"##까요":6298,"총회":6299,"고소":6300,"잠깐":6301,"시사":6302,"##um":6303,"부실":6304,"대북":6305,"보관":6306,"연예":6307,"오랫":6308,"지하철":6309,"잇따":6310,"##ers":6311,"감시":6312,"리라":6313,"질병":6314,"며칠":6315,"프리미엄":6316,"신호":6317,"아무것":6318,"주주":6319,"협정":6320,"바이오":6321,"는다고":6322,"대구시":6323,"소문":6324,"근처":6325,"계열사":6326,"식물":6327,"백성":6328,"독특":6329,"들어서":6330,"FTA":6331,"로마":6332,"사퇴":6333,"배제":6334,"무서":6335,"몰려":6336,"토대":6337,"##버스":6338,"아니면":6339,"페이스":6340,"천안":6341,"방해":6342,"창의":6343,"각자":6344,"학기":6345,"지나치":6346,"64":6347,"##os":6348,"환율":6349,"오바":6350,"스토리":6351,"늘어난":6352,"마감":6353,"교육감":6354,"발사":6355,"객관":6356,"알려진":6357,"간담회":6358,"세종":6359,"##IA":6360,"거론":6361,"##ay":6362,"##조건":6363,"2001":6364,"본사":6365,"동부":6366,"공화":6367,"적자":6368,"풍경":6369,"시청자":6370,"보완":6371,"##ve":6372,"더라고요":6373,"심판":6374,"부위":6375,"수영":6376,"PC":6377,"평등":6378,"이념":6379,"라운드":6380,"##총리":6381,"스페인":6382,"오랫동안":6383,"거두":6384,"경비":6385,"수수료":6386,"상인":6387,"당한":6388,"초점":6389,"신한":6390,"일대":6391,"증시":6392,"##해서":6393,"강사":6394,"##조합":6395,"장사":6396,"##철수":6397,"지위":6398,"정하":6399,"할아버지":6400,"내내":6401,"63":6402,"성남":6403,"의학":6404,"##로운":6405,"호남":6406,"모으":6407,"농촌":6408,"만일":6409,"에다":6410,"##르트":6411,"마이":6412,"생물":6413,"바른":6414,"조례":6415,"대결":6416,"알려져":6417,"어쩔":6418,"원하":6419,"신라":6420,"##뜨리":6421,"반도체":6422,"교환":6423,"인용":6424,"##비아":6425,"간다":6426,"파견":6427,"포럼":6428,"로써":6429,"들이":6430,"85":6431,"마트":6432,"용어":6433,"84":6434,"대처":6435,"하여":6436,"파이":6437,"보일":6438,"로봇":6439,"에어":6440,"욕망":6441,"개정안":6442,"대립":6443,"엔진":6444,"66":6445,"##ut":6446,"조화":6447,"마침내":6448,"정지":6449,"무한":6450,"냐는":6451,"##려야":6452,"절감":6453,"불교":6454,"그리스도":6455,"지표":6456,"km":6457,"건데":6458,"겨우":6459,"사안":6460,"배당":6461,"배려":6462,"지출":6463,"##연히":6464,"전원":6465,"추억":6466,"농협":6467,"동양":6468,"오바마":6469,"외환":6470,"에서부터":6471,"부당":6472,"합병":6473,"돌리":6474,"##학자":6475,"##서트":6476,"직전":6477,"마당":6478,"서양":6479,"확신":6480,"담보":6481,"답니다":6482,"대폭":6483,"노사":6484,"실무":6485,"미세":6486,"만날":6487,"깨달":6488,"##ir":6489,"휴가":6490,"긴급":6491,"고구":6492,"그래요":6493,"고도":6494,"현안":6495,"된다면":6496,"번역":6497,"바람직":6498,"실내":6499,"72":6500,"응원":6501,"평창":6502,"##드리":6503,"테마":6504,"아트":6505,"##에도":6506,"들어간":6507,"끼리":6508,"무조건":6509,"십시오":6510,"##일리":6511,"99":6512,"ㅠㅠ":6513,"진료":6514,"어쨌든":6515,"##ap":6516,"정서":6517,"기지":6518,"벤처":6519,"눈치":6520,"연령":6521,"아닙니다":6522,"라디오":6523,"대만":6524,"In":6525,"장난":6526,"제주도":6527,"못한다":6528,"테크":6529,"결승":6530,"파크":6531,"##op":6532,"##머리":6533,"4000":6534,"데리":6535,"스피":6536,"성능":6537,"관측":6538,"끊임없이":6539,"##로스":6540,"폐기":6541,"노무현":6542,"농가":6543,"운행":6544,"무게":6545,"한마디":6546,"600":6547,"노트":6548,"St":6549,"고령":6550,"유출":6551,"융합":6552,"냐고":6553,"침해":6554,"푸드":6555,"접촉":6556,"##ew":6557,"왼쪽":6558,"뜨거운":6559,"충돌":6560,"호기":6561,"기름":6562,"단속":6563,"변하":6564,"손가락":6565,"영혼":6566,"선임":6567,"가시":6568,"일으키":6569,"이정":6570,"타격":6571,"##레기":6572,"김성":6573,"안철수":6574,"키로":6575,"익숙":6576,"박정":6577,"교실":6578,"수치":6579,"는다면":6580,"고대":6581,"협조":6582,"61":6583,"정착":6584,"##ity":6585,"편리":6586,"캠페인":6587,"적어도":6588,"위대":6589,"테러":6590,"한정":6591,"통증":6592,"개설":6593,"연관":6594,"상임":6595,"수주":6596,"깜짝":6597,"간부":6598,"집계":6599,"세포":6600,"리더십":6601,"국내외":6602,"라서":6603,"미만":6604,"근육":6605,"kr":6606,"상하":6607,"출입":6608,"와인":6609,"드러났":6610,"쓰레기":6611,"청약":6612,"홍콩":6613,"##웨어":6614,"나눔":6615,"도대":6616,"##러지":6617,"브라질":6618,"구청":6619,"용인":6620,"##oc":6621,"그치":6622,"지혜":6623,"촉진":6624,"보존":6625,"느낀":6626,"도망":6627,"장군":6628,"##바닥":6629,"목사":6630,"하우스":6631,"신앙":6632,"네이":6633,"지켜보":6634,"달하":6635,"걸려":6636,"영향력":6637,"도대체":6638,"권위":6639,"1980":6640,"맞이":6641,"끝난":6642,"플러스":6643,"계급":6644,"런던":6645,"무렵":6646,"인민":6647,"중대":6648,"선진국":6649,"유아":6650,"손님":6651,"쉬운":6652,"보편":6653,"일어난":6654,"선두":6655,"고맙":6656,"몰아":6657,"창작":6658,"선사":6659,"중공업":6660,"브리":6661,"콘서트":6662,"가계":6663,"신선":6664,"##건설":6665,"대강":6666,"적응":6667,"고생":6668,"감성":6669,"무너":6670,"##권자":6671,"곧바로":6672,"열린다":6673,"62":6674,"불가피":6675,"뮤지컬":6676,"정치인":6677,"그럼에도":6678,"상가":6679,"기쁨":6680,"고발":6681,"구상":6682,"정확히":6683,"부사":6684,"구제":6685,"고문":6686,"문명":6687,"SNS":6688,"당사자":6689,"살짝":6690,"##단지":6691,"유니":6692,"국정원":6693,"없애":6694,"피아":6695,"벌어지":6696,"소수":6697,"적당":6698,"명품":6699,"컨설":6700,"프레":6701,"디스":6702,"초과":6703,"천연":6704,"일치":6705,"좌우":6706,"민원":6707,"앨범":6708,"성명":6709,"##니어":6710,"신기":6711,"IC":6712,"획득":6713,"공주":6714,"정식":6715,"구성원":6716,"CJ":6717,"##지사":6718,"선보이":6719,"유학":6720,"임기":6721,"고전":6722,"입법":6723,"건조":6724,"사로":6725,"직무":6726,"##ED":6727,"##가스":6728,"지대":6729,"##웨이":6730,"추석":6731,"오른쪽":6732,"퇴직":6733,"68":6734,"단장":6735,"대법원":6736,"##거렸":6737,"그렇지만":6738,"수집":6739,"##래도":6740,"양국":6741,"공학":6742,"유발":6743,"진화":6744,"파업":6745,"항목":6746,"해명":6747,"수리":6748,"##ㅋㅋㅋㅋ":6749,"다름":6750,"보급":6751,"내린":6752,"한참":6753,"급증":6754,"가볍":6755,"든다":6756,"소위":6757,"알아보":6758,"뒤집":6759,"비정":6760,"트렌":6761,"욕구":6762,"사령":6763,"어려워":6764,"확실히":6765,"67":6766,"비서":6767,"주최":6768,"입지":6769,"취약":6770,"올린":6771,"김종":6772,"젊은이":6773,"박람":6774,"##레이드":6775,"계시":6776,"줄어":6777,"아닐까":6778,"##카오":6779,"에겐":6780,"동력":6781,"현행":6782,"신속":6783,"훼손":6784,"주자":6785,"되돌":6786,"연설":6787,"한번":6788,"입시":6789,"선도":6790,"일어났":6791,"인문":6792,"시범":6793,"아라":6794,"대학원":6795,"스위":6796,"##스티":6797,"더군":6798,"찬성":6799,"야권":6800,"남기":6801,"아저":6802,"##스토":6803,"이중":6804,"조달":6805,"임직원":6806,"죽이":6807,"유대":6808,"1997":6809,"1998":6810,"##러진":6811,"아프리카":6812,"주행":6813,"싸우":6814,"챔피언":6815,"1999":6816,"최소한":6817,"구미":6818,"과도":6819,"용역":6820,"청문":6821,"자본주의":6822,"아웃":6823,"만화":6824,"##im":6825,"경기장":6826,"빠진":6827,"출산":6828,"즉시":6829,"모색":6830,"그대":6831,"화성":6832,"가만":6833,"개봉":6834,"빼앗":6835,"아저씨":6836,"가방":6837,"사로잡":6838,"자문":6839,"수백":6840,"##나다":6841,"법무":6842,"일자":6843,"천천":6844,"##영상":6845,"침대":6846,"입증":6847,"논쟁":6848,"품목":6849,"한가":6850,"아무래도":6851,"거짓말":6852,"멈추":6853,"결의":6854,"일방":6855,"진주":6856,"GS":6857,"어울리":6858,"95":6859,"한지":6860,"천천히":6861,"##힌다":6862,"강연":6863,"들어왔":6864,"전주":6865,"어쩌면":6866,"고유":6867,"아마도":6868,"주간":6869,"오직":6870,"191":6871,"결심":6872,"도구":6873,"입찰":6874,"신학":6875,"은퇴":6876,"거치":6877,"의자":6878,"유행":6879,"트위":6880,"여의":6881,"묘사":6882,"굳이":6883,"감염":6884,"칭찬":6885,"테이블":6886,"경매":6887,"6000":6888,"경찰서":6889,"장학":6890,"##생활":6891,"불렀":6892,"##도로":6893,"나타난":6894,"기금":6895,"뚜렷":6896,"과일":6897,"여서":6898,"장식":6899,"휴식":6900,"남부":6901,"재능":6902,"제자":6903,"이어졌":6904,"섬유":6905,"기운":6906,"이용자":6907,"상무":6908,"상실":6909,"정성":6910,"고마":6911,"음료":6912,"연봉":6913,"스케":6914,"때로":6915,"흡수":6916,"트리":6917,"물류":6918,"복원":6919,"전해졌":6920,"어두":6921,"미친":6922,"담긴":6923,"당부":6924,"너희":6925,"노후":6926,"박지":6927,"##마스":6928,"이혼":6929,"분쟁":6930,"미니":6931,"일시":6932,"존중":6933,"금메달":6934,"8000":6935,"##온다":6936,"선출":6937,"##그룹":6938,"군수":6939,"밀려":6940,"통보":6941,"예금":6942,"74":6943,"플랫":6944,"구현":6945,"떠오르":6946,"도내":6947,"재생":6948,"집권":6949,"문서":6950,"소외":6951,"##항공":6952,"안팎":6953,"##시다":6954,"김태":6955,"지리":6956,"진리":6957,"돼요":6958,"남겨":6959,"음성":6960,"계좌":6961,"저장":6962,"##규직":6963,"김해":6964,"재건":6965,"쳐다보":6966,"믿음":6967,"800":6968,"가공":6969,"부활":6970,"시계":6971,"73":6972,"텔레콤":6973,"##문화":6974,"편하":6975,"변수":6976,"71":6977,"비정규직":6978,"##다리":6979,"황금":6980,"인연":6981,"구도":6982,"한쪽":6983,"##어버":6984,"신부":6985,"신중":6986,"연맹":6987,"가질":6988,"좋아하":6989,"부딪":6990,"현황":6991,"77":6992,"골목":6993,"타당":6994,"참조":6995,"소형":6996,"을까요":6997,"극단":6998,"급격":6999,"고양이":7000,"빌려":7001,"그나":7002,"국방부":7003,"축하":7004,"출근":7005,"병사":7006,"파워":7007,"수지":7008,"필자":7009,"갈수록":7010,"급여":7011,"셋째":7012,"지도부":7013,"동영상":7014,"120":7015,"점포":7016,"워낙":7017,"공헌":7018,"최우":7019,"이스라":7020,"가상":7021,"요건":7022,"이리":7023,"이걸":7024,"그쳤":7025,"챙겨":7026,"올바":7027,"군인":7028,"한때":7029,"충족":7030,"##and":7031,"지연":7032,"입구":7033,"민중":7034,"##워하":7035,"192":7036,"트위터":7037,"태어나":7038,"커뮤니케이션":7039,"저런":7040,"Ch":7041,"취급":7042,"비행기":7043,"화장실":7044,"높여":7045,"폐쇄":7046,"블루":7047,"이스라엘":7048,"to":7049,"배상":7050,"김정은":7051,"이슬":7052,"서명":7053,"온도":7054,"안심":7055,"양상":7056,"진지":7057,"흔적":7058,"국어":7059,"대목":7060,"데려":7061,"무척":7062,"캐나다":7063,"청사":7064,"세웠":7065,"저기":7066,"여섯":7067,"박람회":7068,"##증권":7069,"영웅":7070,"매출액":7071,"동남":7072,"바위":7073,"사단":7074,"둘러싼":7075,"의해서":7076,"드릴":7077,"시달":7078,"김대":7079,"종시":7080,"유로":7081,"차관":7082,"주차장":7083,"전후":7084,"##th":7085,"69":7086,"심하":7087,"여겨":7088,"진영":7089,"아가":7090,"우울":7091,"도쿄":7092,"의정":7093,"경영자":7094,"공인":7095,"열렸":7096,"장르":7097,"될지":7098,"코치":7099,"철강":7100,"보험료":7101,"마디":7102,"상생":7103,"들어와":7104,"휴대폰":7105,"십니까":7106,"가르치":7107,"유산":7108,"변신":7109,"##ab":7110,"케이블":7111,"76":7112,"구글":7113,"공제":7114,"앞장":7115,"지명":7116,"각국":7117,"주부":7118,"타인":7119,"실정":7120,"농구":7121,"식민":7122,"입술":7123,"미술관":7124,"채무":7125,"지나가":7126,"환영":7127,"평범":7128,"후배":7129,"셔서":7130,"용품":7131,"메르":7132,"담겨":7133,"엘리":7134,"##산업":7135,"구경":7136,"소스":7137,"평양":7138,"스크":7139,"비타":7140,"격차":7141,"연방":7142,"유치원":7143,"기후":7144,"과세":7145,"##시장":7146,"##비전":7147,"##낸다":7148,"돌아왔":7149,"나설":7150,"향한":7151,"##로그":7152,"복수":7153,"유동":7154,"영장":7155,"쏟아":7156,"학회":7157,"재벌":7158,"대행":7159,"지진":7160,"SBS":7161,"스파":7162,"간접":7163,"교육부":7164,"모니":7165,"그릇":7166,"전시회":7167,"새끼":7168,"부작":7169,"깨닫":7170,"비로":7171,"190":7172,"체포":7173,"색깔":7174,"먹스":7175,"기상":7176,"가벼":7177,"틀림":7178,"일관":7179,"자국":7180,"##라리":7181,"공략":7182,"양산":7183,"##게요":7184,"영남":7185,"체크":7186,"블록":7187,"이민":7188,"넘어가":7189,"진학":7190,"이젠":7191,"메이저":7192,"조항":7193,"참가자":7194,"민감":7195,"7000":7196,"##ame":7197,"강점":7198,"뷰티":7199,"사드":7200,"널리":7201,"으려고":7202,"넘치":7203,"침묵":7204,"해고":7205,"으시":7206,"마친":7207,"##덩이":7208,"AI":7209,"마땅":7210,"부각":7211,"88":7212,"원주":7213,"치르":7214,"오해":7215,"푸른":7216,"KIA":7217,"마법":7218,"충실":7219,"중도":7220,"탄핵":7221,"신입":7222,"섭취":7223,"관념":7224,"중동":7225,"##ra":7226,"체력":7227,"일기":7228,"선전":7229,"엄격":7230,"##ie":7231,"조합원":7232,"거절":7233,"확충":7234,"적발":7235,"눈앞":7236,"동맹":7237,"치즈":7238,"##CD":7239,"유권자":7240,"그분":7241,"##라고":7242,"발전소":7243,"78":7244,"홀로":7245,"충북":7246,"영입":7247,"여지":7248,"어리":7249,"무용":7250,"진심":7251,"02":7252,"대개":7253,"패턴":7254,"관세":7255,"던가":7256,"무사":7257,"정작":7258,"##우드":7259,"살려":7260,"환상":7261,"충청":7262,"##크스":7263,"주기":7264,"갤럭":7265,"개헌":7266,"카카오":7267,"유력":7268,"날아":7269,"법칙":7270,"부끄":7271,"갤럭시":7272,"총괄":7273,"상환":7274,"구원":7275,"700":7276,"맞서":7277,"문화재":7278,"우유":7279,"동해":7280,"불행":7281,"##들이":7282,"종종":7283,"해질":7284,"##회의":7285,"시급":7286,"붙여":7287,"파티":7288,"패배":7289,"봐도":7290,"마이크":7291,"진로":7292,"이주":7293,"연료":7294,"초래":7295,"전당":7296,"징역":7297,"배달":7298,"받아들여":7299,"진흥":7300,"장수":7301,"붙잡":7302,"온갖":7303,"대상자":7304,"개통":7305,"반성":7306,"드디어":7307,"스카":7308,"대거":7309,"보여준다":7310,"##컨대":7311,"##거래":7312,"##립니다":7313,"종료":7314,"강요":7315,"중반":7316,"한층":7317,"심한":7318,"##ea":7319,"스런":7320,"봅니다":7321,"페이스북":7322,"상사":7323,"컨설팅":7324,"계단":7325,"##CC":7326,"2020":7327,"동작":7328,"##디션":7329,"언젠":7330,"실망":7331,"체육관":7332,"어둠":7333,"무언":7334,"파트너":7335,"우리나라":7336,"욕심":7337,"##PG":7338,"도약":7339,"계절":7340,"압력":7341,"박스":7342,"시킨다":7343,"까닭":7344,"시정":7345,"수분":7346,"세부":7347,"베스트":7348,"징계":7349,"##져야":7350,"엑스":7351,"재개":7352,"으리":7353,"두드":7354,"의뢰":7355,"탄력":7356,"산하":7357,"텔레비전":7358,"재배":7359,"중구":7360,"클래식":7361,"철저히":7362,"플라":7363,"자신감":7364,"모았":7365,"이닝":7366,"주석":7367,"##브리":7368,"소요":7369,"동화":7370,"스키":7371,"##TV":7372,"승진":7373,"방학":7374,"비타민":7375,"내려가":7376,"공시":7377,"화물":7378,"##총장":7379,"통치":7380,"경찰청":7381,"기법":7382,"비로소":7383,"신세계":7384,"광주시":7385,"당황":7386,"가요":7387,"두려움":7388,"하여금":7389,"촛불":7390,"1995":7391,"즉각":7392,"몇몇":7393,"감상":7394,"처지":7395,"왜곡":7396,"청문회":7397,"금방":7398,"교장":7399,"고리":7400,"붕괴":7401,"토론회":7402,"개척":7403,"세운":7404,"성취":7405,"가입자":7406,"오프":7407,"육체":7408,"당당":7409,"전지":7410,"사이버":7411,"오피스":7412,"##천시":7413,"심화":7414,"수급":7415,"꿈꾸":7416,"신발":7417,"문의":7418,"내면":7419,"구별":7420,"##어질":7421,"줄여":7422,"어려울":7423,"벌였":7424,"들리":7425,"##하우":7426,"영광":7427,"##어놓":7428,"PD":7429,"##수수":7430,"영화제":7431,"내수":7432,"깔끔":7433,"과감":7434,"모니터":7435,"어우":7436,"금속":7437,"허위":7438,"장악":7439,"재판부":7440,"순서":7441,"유입":7442,"원정":7443,"앞둔":7444,"멋진":7445,"오랜만":7446,"기대감":7447,"외면":7448,"임신":7449,"테스트":7450,"트렌드":7451,"즐겁":7452,"98":7453,"참사":7454,"##아리":7455,"특유":7456,"성폭":7457,"##나이":7458,"역전":7459,"경상":7460,"치킨":7461,"손상":7462,"도달":7463,"##이브":7464,"합류":7465,"지지율":7466,"한숨":7467,"##본다":7468,"##사고":7469,"고백":7470,"디스플레이":7471,"기재":7472,"기아차":7473,"상당수":7474,"재밌":7475,"박수":7476,"그나마":7477,"충전":7478,"화이트":7479,"풀이":7480,"합동":7481,"##려서":7482,"사회주의":7483,"해군":7484,"##하여":7485,"그야":7486,"재난":7487,"규명":7488,"갖춰":7489,"예외":7490,"당일":7491,"의결":7492,"언젠가":7493,"이른다":7494,"원가":7495,"추적":7496,"1970":7497,"인데요":7498,"상승세":7499,"밴드":7500,"EU":7501,"자세히":7502,"고수":7503,"매주":7504,"정수":7505,"설문":7506,"포스트":7507,"꼼꼼":7508,"대금":7509,"비평":7510,"강도":7511,"서부":7512,"소음":7513,"관료":7514,"사업비":7515,"마크":7516,"가깝":7517,"##ver":7518,"동구":7519,"입니까":7520,"아름답":7521,"##퍼스":7522,"##저히":7523,"농사":7524,"떠났":7525,"마라":7526,"형상":7527,"방사":7528,"매니":7529,"산책":7530,"존경":7531,"시골":7532,"바깥":7533,"리조":7534,"작동":7535,"식단":7536,"랜드":7537,"후기":7538,"상공":7539,"답답":7540,"빠졌":7541,"이종":7542,"억제":7543,"소프트웨어":7544,"극대":7545,"흘리":7546,"도민":7547,"김동":7548,"##ram":7549,"향하":7550,"##IS":7551,"레드":7552,"##30":7553,"보육":7554,"무관":7555,"관절":7556,"##번에":7557,"81":7558,"아시":7559,"행보":7560,"임무":7561,"압도":7562,"##레인":7563,"들어갈":7564,"제조업":7565,"82":7566,"학술":7567,"즐거움":7568,"면세":7569,"부사장":7570,"##리스트":7571,"케어":7572,"쇼핑몰":7573,"원고":7574,"간호":7575,"co":7576,"귀여":7577,"회관":7578,"건가":7579,"이어질":7580,"CC":7581,"신인":7582,"김현":7583,"위로":7584,"공중":7585,"자존":7586,"옮기":7587,"걸렸":7588,"최적":7589,"79":7590,"증대":7591,"모를":7592,"특검":7593,"탈출":7594,"해제":7595,"가전":7596,"노하우":7597,"동북":7598,"로드":7599,"건전":7600,"##관리":7601,"베이징":7602,"대륙":7603,"태어난":7604,"한미":7605,"유해":7606,"가해":7607,"채워":7608,"중점":7609,"고사":7610,"동참":7611,"착수":7612,"산업단지":7613,"##긴다":7614,"탄소":7615,"아끼":7616,"짐작":7617,"마사":7618,"##ion":7619,"나간":7620,"용서":7621,"##소득":7622,"1996":7623,"대외":7624,"확률":7625,"판정":7626,"돌아온":7627,"##단체":7628,"타이어":7629,"##렇게":7630,"##든지":7631,"신비":7632,"였으며":7633,"끄덕":7634,"연예인":7635,"선보였":7636,"앞세":7637,"북부":7638,"운송":7639,"끌어올":7640,"그간":7641,"구멍":7642,"봐요":7643,"형편":7644,"안타까":7645,"보전":7646,"탐구":7647,"넘겨":7648,"비디오":7649,"각오":7650,"참으로":7651,"원자력":7652,"놓여":7653,"급식":7654,"성실":7655,"소련":7656,"데일리":7657,"지침":7658,"일각":7659,"대체로":7660,"IM":7661,"실시간":7662,"어르":7663,"모래":7664,"유연":7665,"MB":7666,"막대":7667,"연휴":7668,"##의자":7669,"다를":7670,"더구나":7671,"선교":7672,"핸드":7673,"특화":7674,"다스":7675,"대량":7676,"부작용":7677,"##ff":7678,"잡지":7679,"##로지":7680,"상식":7681,"증권사":7682,"위상":7683,"가사":7684,"운전자":7685,"애정":7686,"돼서":7687,"소금":7688,"86":7689,"예쁘":7690,"폭행":7691,"자발":7692,"오가":7693,"빌딩":7694,"중독":7695,"유전자":7696,"독재":7697,"격려":7698,"##르크":7699,"반박":7700,"부드럽":7701,"메모":7702,"돌아보":7703,"지인":7704,"일원":7705,"고르":7706,"비하":7707,"코드":7708,"##ㅠㅠㅠㅠ":7709,"##둘러":7710,"상금":7711,"공고":7712,"준공":7713,"가속":7714,"한강":7715,"전파":7716,"하얀":7717,"농산물":7718,"인천시":7719,"해진다":7720,"분열":7721,"87":7722,"잡아":7723,"##랑이":7724,"이룬":7725,"미칠":7726,"본래":7727,"##포르":7728,"올바른":7729,"고구려":7730,"진상":7731,"202":7732,"일어":7733,"가맹":7734,"연애":7735,"저작":7736,"가만히":7737,"그야말로":7738,"##tt":7739,"일본인":7740,"완공":7741,"리조트":7742,"name":7743,"무장":7744,"9000":7745,"명성":7746,"소지":7747,"비대":7748,"매치":7749,"호수":7750,"매도":7751,"해상":7752,"1994":7753,"댓글":7754,"비례":7755,"높였":7756,"##아이":7757,"특별히":7758,"소환":7759,"##어진다":7760,"연상":7761,"아이폰":7762,"시중":7763,"부산시":7764,"라이프":7765,"전설":7766,"금호":7767,"냉장":7768,"어머":7769,"수천":7770,"국당":7771,"지불":7772,"눈빛":7773,"상자":7774,"##트리":7775,"이마트":7776,"차기":7777,"##시코":7778,"메이크":7779,"살아남":7780,"연인":7781,"96":7782,"만기":7783,"##져서":7784,"이럴":7785,"시상":7786,"아메":7787,"건지":7788,"하위":7789,"이모":7790,"기울이":7791,"떠난":7792,"##운동":7793,"아픈":7794,"친절":7795,"슬픔":7796,"##스티벌":7797,"먼지":7798,"골프장":7799,"중시":7800,"##다수":7801,"페스티벌":7802,"포스":7803,"일지":7804,"실태":7805,"워크":7806,"어르신":7807,"##ard":7808,"평택":7809,"열차":7810,"이슬람":7811,"97":7812,"머릿":7813,"최상":7814,"유용":7815,"서술":7816,"필리":7817,"비서관":7818,"죄송":7819,"걸로":7820,"명단":7821,"강릉":7822,"달아":7823,"신장":7824,"농장":7825,"돋보":7826,"구름":7827,"남쪽":7828,"##TE":7829,"예쁜":7830,"붙이":7831,"걸린":7832,"맥락":7833,"비싼":7834,"노리":7835,"독점":7836,"신임":7837,"##바지":7838,"세탁":7839,"일곱":7840,"태국":7841,"착용":7842,"보조금":7843,"배터리":7844,"원천":7845,"코너":7846,"따지":7847,"수록":7848,"허락":7849,"챙기":7850,"지부":7851,"용지":7852,"##ia":7853,"난다":7854,"도발":7855,"금강":7856,"감자":7857,"가이드":7858,"주소":7859,"김재":7860,"명칭":7861,"다가오":7862,"코스피":7863,"넘기":7864,"조용히":7865,"거친":7866,"안양":7867,"사연":7868,"모순":7869,"귀국":7870,"피로":7871,"예능":7872,"부리":7873,"살해":7874,"심정":7875,"##리즘":7876,"한창":7877,"가르쳐":7878,"도중":7879,"회수":7880,"라면서":7881,"##ep":7882,"##싱턴":7883,"주류":7884,"성립":7885,"##든가":7886,"83":7887,"##스키":7888,"부패":7889,"납품":7890,"##받침":7891,"행정부":7892,"한글":7893,"혈액":7894,"기조":7895,"아카":7896,"도청":7897,"사라졌":7898,"바보":7899,"대대":7900,"부하":7901,"캠퍼스":7902,"단체장":7903,"91":7904,"##가포르":7905,"해수":7906,"스승":7907,"행진":7908,"잇따라":7909,"리얼":7910,"스티":7911,"여의도":7912,"주먹":7913,"헤어":7914,"이겨":7915,"줄기":7916,"##tic":7917,"누나":7918,"##가운":7919,"##스턴":7920,"즐거운":7921,"##처럼":7922,"싱가포르":7923,"##어내":7924,"제고":7925,"애니":7926,"명절":7927,"마켓":7928,"한도":7929,"##스탄":7930,"청산":7931,"치유":7932,"시집":7933,"가려":7934,"정밀":7935,"관행":7936,"권고":7937,"##──":7938,"플랜":7939,"거울":7940,"수면":7941,"아픔":7942,"솔직히":7943,"용산":7944,"89":7945,"줄어든":7946,"무력":7947,"요원":7948,"게시":7949,"물품":7950,"납부":7951,"누적":7952,"만만":7953,"입사":7954,"마산":7955,"청주":7956,"해안":7957,"책상":7958,"연평":7959,"에는":7960,"##바람":7961,"생생":7962,"최악":7963,"위축":7964,"라니":7965,"무언가":7966,"##디아":7967,"전담":7968,"##iv":7969,"태평":7970,"당원":7971,"##풀이":7972,"낮추":7973,"후회":7974,"한두":7975,"국세":7976,"정면":7977,"둘러싸":7978,"st":7979,"늘어났":7980,"바닷":7981,"아쉽":7982,"시공":7983,"감추":7984,"개소":7985,"월급":7986,"차라리":7987,"천억":7988,"FC":7989,"250":7990,"마쳤":7991,"180":7992,"고시":7993,"표면":7994,"애초":7995,"뛰어나":7996,"무선":7997,"##루션":7998,"먹이":7999,"와이":8000,"김진":8001,"실체":8002,"명백":8003,"선보인다":8004,"김상":8005,"학력":8006,"##ke":8007,"오페":8008,"일반인":8009,"빨간":8010,"클린":8011,"나란히":8012,"메이크업":8013,"워싱턴":8014,"비극":8015,"국면":8016,"아름다움":8017,"생일":8018,"얼음":8019,"##바이":8020,"돌입":8021,"패러":8022,"쓰이":8023,"절실":8024,"서서":8025,"세미":8026,"협동":8027,"##먼지":8028,"##로드":8029,"해체":8030,"글자":8031,"포도":8032,"조리":8033,"인테":8034,"되찾":8035,"당분":8036,"탁월":8037,"대원":8038,"겨냥":8039,"놓치":8040,"GM":8041,"나타난다":8042,"단원":8043,"엔터":8044,"모른":8045,"92":8046,"골라":8047,"통장":8048,"00":8049,"발효":8050,"흥분":8051,"##테크":8052,"사냥":8053,"태양광":8054,"분산":8055,"전선":8056,"흔들리":8057,"북미":8058,"자칫":8059,"고집":8060,"실리":8061,"주저":8062,"순이":8063,"작곡":8064,"기술력":8065,"경로":8066,"거래소":8067,"내밀":8068,"전무":8069,"부가":8070,"94":8071,"도서":8072,"모은":8073,"##ail":8074,"어라":8075,"드림":8076,"실종":8077,"모시":8078,"뒷받침":8079,"구석":8080,"##해야":8081,"출석":8082,"입원":8083,"##느님":8084,"강경":8085,"미터":8086,"어린이집":8087,"재건축":8088,"비싸":8089,"채소":8090,"시나":8091,"방치":8092,"시세":8093,"됐으며":8094,"스튜":8095,"멕시코":8096,"인테리어":8097,"즐겨":8098,"고추":8099,"재원":8100,"곤란":8101,"증언":8102,"내지":8103,"차장":8104,"양쪽":8105,"춘천":8106,"어떨":8107,"네이버":8108,"고지":8109,"유혹":8110,"감축":8111,"어릴":8112,"중국인":8113,"철거":8114,"향기":8115,"##est":8116,"##성장":8117,"노예":8118,"담당자":8119,"pp":8120,"보인":8121,"드러냈":8122,"이야말로":8123,"실용":8124,"하느님":8125,"단단":8126,"여권":8127,"찾아보":8128,"서해":8129,"급속":8130,"숙박":8131,"##러져":8132,"적정":8133,"중계":8134,"로스":8135,"재정부":8136,"채우":8137,"공작":8138,"##uc":8139,"##ell":8140,"명시":8141,"분당":8142,"부드러운":8143,"더욱이":8144,"클라":8145,"의류":8146,"저소득":8147,"바이러스":8148,"김포":8149,"그리하여":8150,"뇌물":8151,"주방":8152,"##어리":8153,"사무소":8154,"함유":8155,"민심":8156,"##어넣":8157,"조만":8158,"##ist":8159,"출장":8160,"Pr":8161,"##피아":8162,"기호":8163,"탑재":8164,"회전":8165,"외모":8166,"나쁘":8167,"귀족":8168,"강세":8169,"따위":8170,"배운":8171,"간주":8172,"##키지":8173,"양자":8174,"수렴":8175,"놀랐":8176,"포트":8177,"갤러리":8178,"들어온":8179,"대박":8180,"절망":8181,"기온":8182,"파일":8183,"편의점":8184,"철회":8185,"출간":8186,"위탁":8187,"##ok":8188,"증진":8189,"##네시아":8190,"퇴근":8191,"프라":8192,"범행":8193,"쟁점":8194,"놀라운":8195,"대다수":8196,"돌아와":8197,"최신":8198,"코트":8199,"타워":8200,"정규직":8201,"김경":8202,"논술":8203,"##ill":8204,"동서":8205,"탈락":8206,"그림자":8207,"타운":8208,"추모":8209,"신사":8210,"산림":8211,"빛나":8212,"패키지":8213,"오페라":8214,"원유":8215,"총재":8216,"사찰":8217,"항의":8218,"디자이너":8219,"일요일":8220,"발급":8221,"궁극":8222,"직장인":8223,"조국":8224,"원료":8225,"93":8226,"##eg":8227,"부적":8228,"발주":8229,"자사":8230,"떠올랐":8231,"03":8232,"김기":8233,"학위":8234,"생길":8235,"안동":8236,"못지":8237,"아시안":8238,"나아":8239,"##스레":8240,"새해":8241,"기적":8242,"명회":8243,"모터":8244,"버려":8245,"호응":8246,"##타인":8247,"스위스":8248,"면역":8249,"##현진":8250,"책임자":8251,"세제":8252,"IP":8253,"##용차":8254,"터미":8255,"화폐":8256,"심해":8257,"연합회":8258,"원활":8259,"던데":8260,"사자":8261,"환경부":8262,"이뤄졌":8263,"이끄":8264,"기차":8265,"선거구":8266,"명분":8267,"승객":8268,"오토":8269,"다행히":8270,"##잡이":8271,"들여다보":8272,"th":8273,"무산":8274,"누워":8275,"포털":8276,"은가":8277,"취향":8278,"면세점":8279,"예컨대":8280,"189":8281,"##느리":8282,"발목":8283,"수험":8284,"김대중":8285,"대주":8286,"연패":8287,"더군요":8288,"오일":8289,"빠져나":8290,"여사":8291,"예선":8292,"야외":8293,"지경":8294,"NC":8295,"자부":8296,"##ip":8297,"인도네시아":8298,"아베":8299,"절대로":8300,"스페":8301,"피고":8302,"##꺼번에":8303,"한꺼번에":8304,"대해선":8305,"길이":8306,"사무총장":8307,"조만간":8308,"치러":8309,"표명":8310,"나선다":8311,"미세먼지":8312,"박정희":8313,"백만":8314,"고스":8315,"건수":8316,"피곤":8317,"내정":8318,"교섭":8319,"건의":8320,"정말로":8321,"일행":8322,"양념":8323,"열기":8324,"##동강":8325,"특이":8326,"##our":8327,"창문":8328,"##토록":8329,"##구리":8330,"전역":8331,"가라":8332,"세일":8333,"##가루":8334,"억울":8335,"날개":8336,"지냈":8337,"05":8338,"벌어졌":8339,"드렸":8340,"성서":8341,"이를":8342,"판매량":8343,"크리스마스":8344,"1960":8345,"당분간":8346,"##제품":8347,"측근":8348,"갈라":8349,"누르":8350,"프린":8351,"전적":8352,"수당":8353,"이영":8354,"꼬리":8355,"##ob":8356,"당내":8357,"주재":8358,"사립":8359,"김연":8360,"서서히":8361,"소원":8362,"간판":8363,"북쪽":8364,"넥센":8365,"관람객":8366,"머릿속":8367,"병행":8368,"리스트":8369,"조지":8370,"IS":8371,"인격":8372,"응급":8373,"사인":8374,"으러":8375,"당해":8376,"흥행":8377,"간식":8378,"용도":8379,"##all":8380,"온몸":8381,"우위":8382,"거점":8383,"음주":8384,"던져":8385,"900":8386,"공기업":8387,"동계":8388,"남겼":8389,"페이":8390,"동아리":8391,"피자":8392,"재고":8393,"리스크":8394,"##ge":8395,"##ttp":8396,"식민지":8397,"앞선":8398,"버릴":8399,"선행":8400,"##직자":8401,"##러워":8402,"뒤늦":8403,"접속":8404,"자존심":8405,"주사":8406,"스러워":8407,"스탠":8408,"화합":8409,"##대문":8410,"토요일":8411,"http":8412,"이수":8413,"낭비":8414,"필리핀":8415,"포르":8416,"##덜란드":8417,"교정":8418,"도저히":8419,"다룬":8420,"위성":8421,"전교":8422,"문구":8423,"페이지":8424,"관여":8425,"중개":8426,"내보":8427,"스타트":8428,"##어붙":8429,"멀티":8430,"항공기":8431,"건설사":8432,"차질":8433,"장학금":8434,"##ub":8435,"인형":8436,"공익":8437,"장례":8438,"1992":8439,"##art":8440,"뛰어들":8441,"네덜란드":8442,"과학자":8443,"LED":8444,"크루":8445,"자제":8446,"상주":8447,"바뀐":8448,"상영":8449,"생애":8450,"중고":8451,"외치":8452,"단다":8453,"아냐":8454,"터미널":8455,"비결":8456,"축적":8457,"염려":8458,"확립":8459,"솔루션":8460,"실점":8461,"어차":8462,"될까":8463,"##구역":8464,"서둘러":8465,"##DP":8466,"불거":8467,"생계":8468,"괴롭":8469,"벌금":8470,"내달":8471,"차세대":8472,"대단히":8473,"플래":8474,"야간":8475,"안경":8476,"한동안":8477,"창고":8478,"무지":8479,"단축":8480,"착공":8481,"힘입":8482,"초월":8483,"1993":8484,"공정위":8485,"어차피":8486,"지낸":8487,"니까요":8488,"그라":8489,"계란":8490,"추락":8491,"##걸음":8492,"아나":8493,"아쉬움":8494,"스프":8495,"독도":8496,"사후":8497,"송도":8498,"고조":8499,"어려웠":8500,"등산":8501,"정통":8502,"터키":8503,"합쳐":8504,"불황":8505,"텍스트":8506,"날카":8507,"뱅크":8508,"최순":8509,"공업":8510,"고장":8511,"조선일보":8512,"종일":8513,"강행":8514,"늘어날":8515,"시술":8516,"cm":8517,"##러드":8518,"강아지":8519,"구호":8520,"숨겨":8521,"콜라":8522,"순천":8523,"투기":8524,"벨트":8525,"골드":8526,"슬로":8527,"사우":8528,"다짐":8529,"잘라":8530,"한류":8531,"커플":8532,"김용":8533,"or":8534,"억압":8535,"간편":8536,"세미나":8537,"보좌":8538,"양심":8539,"서초":8540,"바퀴":8541,"냉장고":8542,"들어선":8543,"중견":8544,"상속":8545,"국산":8546,"비유":8547,"발라":8548,"##집트":8549,"스웨":8550,"소주":8551,"해설":8552,"결혼식":8553,"배정":8554,"무서운":8555,"스크린":8556,"예술가":8557,"감수":8558,"응시":8559,"출판사":8560,"벌어진":8561,"음식점":8562,"펼쳤":8563,"##핵화":8564,"이데":8565,"##미터":8566,"마스터":8567,"이집트":8568,"왕자":8569,"비핵화":8570,"남한":8571,"지성":8572,"처방":8573,"공세":8574,"소용":8575,"당뇨":8576,"달랐":8577,"별다른":8578,"폭탄":8579,"이태":8580,"파주":8581,"뛰어넘":8582,"견제":8583,"최다":8584,"동향":8585,"창립":8586,"##둥이":8587,"몰리":8588,"티켓":8589,"무덤":8590,"브리핑":8591,"분할":8592,"일환":8593,"의상":8594,"써야":8595,"시트":8596,"천재":8597,"전사":8598,"고무":8599,"노동조합":8600,"조약":8601,"국무총리":8602,"사업장":8603,"국경":8604,"주름":8605,"안산":8606,"번지":8607,"food":8608,"영감":8609,"이루어진":8610,"세련":8611,"성질":8612,"##이즈":8613,"IB":8614,"행태":8615,"시가":8616,"재현":8617,"지검":8618,"조세":8619,"현직":8620,"일체":8621,"동남아":8622,"##ine":8623,"주유":8624,"kg":8625,"주고":8626,"시신":8627,"똑같이":8628,"둘러보":8629,"현역":8630,"가벼운":8631,"부천":8632,"떠올리":8633,"로비":8634,"구두":8635,"대지":8636,"냐면":8637,"특위":8638,"좌절":8639,"쌍용":8640,"호기심":8641,"관장":8642,"민생":8643,"과잉":8644,"니다":8645,"다녔":8646,"염두":8647,"식량":8648,"아닙니까":8649,"유전":8650,"출자":8651,"성숙":8652,"교황":8653,"김정일":8654,"기다렸":8655,"류현진":8656,"순이익":8657,"낯선":8658,"장착":8659,"의약":8660,"태풍":8661,"##데이":8662,"입맛":8663,"면제":8664,"철수":8665,"소감":8666,"증세":8667,"01":8668,"for":8669,"뮤직":8670,"포괄":8671,"등록금":8672,"달라지":8673,"지법":8674,"나와서":8675,"지났":8676,"한우":8677,"##니즘":8678,"IMF":8679,"영토":8680,"시나리오":8681,"단점":8682,"주한":8683,"교통사고":8684,"역설":8685,"태극":8686,"연승":8687,"늘려":8688,"넘어서":8689,"저하":8690,"자회사":8691,"1500":8692,"소매":8693,"부스":8694,"데이트":8695,"모범":8696,"계신":8697,"시켜야":8698,"베르":8699,"감당":8700,"코스닥":8701,"##하나":8702,"맡기":8703,"무섭":8704,"남긴":8705,"금감":8706,"오류":8707,"가짜":8708,"트레이":8709,"백제":8710,"단백":8711,"낙동강":8712,"교원":8713,"주고받":8714,"얼른":8715,"노동당":8716,"법무부":8717,"대항":8718,"공방":8719,"따져":8720,"치매":8721,"맛스타":8722,"케이스":8723,"반짝":8724,"##ork":8725,"신념":8726,"직면":8727,"착한":8728,"노릇":8729,"찾아내":8730,"거뒀":8731,"일어날":8732,"추출":8733,"낸다":8734,"명문":8735,"##메이션":8736,"근원":8737,"그래야":8738,"언더":8739,"임상":8740,"##stag":8741,"양보":8742,"오로지":8743,"물고기":8744,"갑작":8745,"감지":8746,"안다":8747,"##ev":8748,"유족":8749,"수산":8750,"타이틀":8751,"신성":8752,"언덕":8753,"떠오":8754,"소셜":8755,"##저기":8756,"미쳤":8757,"LH":8758,"아리":8759,"확고":8760,"프라이":8761,"액션":8762,"강렬":8763,"적립":8764,"마늘":8765,"혈관":8766,"속하":8767,"터지":8768,"여신":8769,"여기저기":8770,"이윤":8771,"새겨":8772,"##뜨렸":8773,"증인":8774,"으리라":8775,"##일으":8776,"새우":8777,"불러일으":8778,"대조":8779,"위장":8780,"인종":8781,"급등":8782,"제발":8783,"오피스텔":8784,"천하":8785,"꼽히":8786,"부도":8787,"##시스":8788,"나타냈":8789,"전신":8790,"지난주":8791,"내외":8792,"항만":8793,"의외":8794,"인디":8795,"꼽힌다":8796,"타입":8797,"정답":8798,"바지":8799,"돌렸":8800,"여주":8801,"국물":8802,"이치":8803,"첫날":8804,"청정":8805,"두루":8806,"재활":8807,"강좌":8808,"##관계":8809,"지능":8810,"비치":8811,"이뤄진":8812,"##톨릭":8813,"색상":8814,"한진":8815,"부총리":8816,"중순":8817,"억지":8818,"유망":8819,"부양":8820,"미국인":8821,"범인":8822,"살피":8823,"외국어":8824,"예의":8825,"바둑":8826,"후속":8827,"문득":8828,"과시":8829,"평론":8830,"피아노":8831,"일부러":8832,"몽골":8833,"##━━":8834,"고스란히":8835,"편입":8836,"도모":8837,"더러":8838,"음반":8839,"멘토":8840,"##ud":8841,"세무":8842,"목격":8843,"으려는":8844,"보여준":8845,"신혼":8846,"오를":8847,"##런스":8848,"결단":8849,"불안감":8850,"종로":8851,"장성":8852,"흑인":8853,"##아내":8854,"계곡":8855,"찾아오":8856,"##80":8857,"요약":8858,"관중":8859,"안타깝":8860,"감기":8861,"남아":8862,"위안부":8863,"정한":8864,"영원히":8865,"한결":8866,"유효":8867,"포착":8868,"어두운":8869,"##화문":8870,"아닌데":8871,"몹시":8872,"앞장서":8873,"김일":8874,"수성":8875,"활력":8876,"연세대":8877,"더블":8878,"협박":8879,"발명":8880,"수령":8881,"종전":8882,"개장":8883,"1991":8884,"틀림없":8885,"잠실":8886,"##올로":8887,"FA":8888,"김수":8889,"트럭":8890,"폴리":8891,"수시로":8892,"증정":8893,"달한다":8894,"130":8895,"버티":8896,"조상":8897,"성경":8898,"도박":8899,"방송사":8900,"불량":8901,"몰래":8902,"당첨":8903,"서기":8904,"여객":8905,"New":8906,"##빨리":8907,"글쎄":8908,"매니저":8909,"##놀이":8910,"창원시":8911,"간절":8912,"건네":8913,"감옥":8914,"명의":8915,"##ht":8916,"마라톤":8917,"기쁘":8918,"전액":8919,"지목":8920,"흑자":8921,"느냐는":8922,"마약":8923,"업자":8924,"전술":8925,"정세":8926,"바꿀":8927,"양도":8928,"공화국":8929,"NH":8930,"이라크":8931,"기다려":8932,"신상":8933,"대국":8934,"이분":8935,"어느새":8936,"이병":8937,"육상":8938,"단백질":8939,"고려대":8940,"상세":8941,"##다지":8942,"인체":8943,"보낼":8944,"##연합":8945,"경제학":8946,"이마":8947,"던졌":8948,"##OC":8949,"사격":8950,"어지":8951,"지각":8952,"##위원":8953,"터져":8954,"블로그":8955,"제휴":8956,"승용차":8957,"상권":8958,"내놨":8959,"연다":8960,"##시간":8961,"##렉스":8962,"내주":8963,"아스":8964,"스코":8965,"##인지":8966,"##스토랑":8967,"레스토랑":8968,"주머니":8969,"우연히":8970,"촉촉":8971,"반려":8972,"합성":8973,"매월":8974,"경관":8975,"마스크":8976,"잃어버":8977,"토끼":8978,"해라":8979,"우린":8980,"반전":8981,"미루":8982,"빈곤":8983,"시너지":8984,"화해":8985,"마구":8986,"모이":8987,"무효":8988,"드물":8989,"우정":8990,"시달리":8991,"유적":8992,"##트로":8993,"혈압":8994,"식구":8995,"가져다":8996,"농담":8997,"끌려":8998,"금감원":8999,"집착":9000,"소극":9001,"내려오":9002,"공직자":9003,"무더":9004,"취미":9005,"힐링":9006,"달콤":9007,"단호":9008,"어떨까":9009,"점령":9010,"생리":9011,"노총":9012,"##ran":9013,"인쇄":9014,"개시":9015,"아가씨":9016,"광명":9017,"본능":9018,"허브":9019,"약물":9020,"이순":9021,"##ment":9022,"자영":9023,"병력":9024,"무죄":9025,"##NG":9026,"피할":9027,"##올로기":9028,"내비":9029,"접하":9030,"##급식":9031,"도지사":9032,"기성":9033,"국비":9034,"수명":9035,"줄일":9036,"랭킹":9037,"인성":9038,"불신":9039,"지붕":9040,"##ort":9041,"살림":9042,"의정부":9043,"##무성":9044,"무상급식":9045,"인턴":9046,"메르스":9047,"패스":9048,"내세우":9049,"1988":9050,"조종":9051,"하도":9052,"반찬":9053,"커뮤니티":9054,"견디":9055,"조그":9056,"오케":9057,"부른다":9058,"네티":9059,"특별법":9060,"바쁜":9061,"가라앉":9062,"##if":9063,"남구":9064,"고인":9065,"배워":9066,"가맹점":9067,"이데올로기":9068,"이산":9069,"메인":9070,"##셉트":9071,"은지":9072,"접목":9073,"소득세":9074,"##데미":9075,"학업":9076,"본선":9077,"으신":9078,"우연":9079,"##ial":9080,"보충":9081,"발간":9082,"문건":9083,"대접":9084,"등판":9085,"소홀":9086,"운항":9087,"건국":9088,"터널":9089,"북구":9090,"바쁘":9091,"배웠":9092,"방위":9093,"##닉스":9094,"on":9095,"피우":9096,"부재":9097,"아카데미":9098,"목욕":9099,"일선":9100,"약화":9101,"육군":9102,"샐러드":9103,"##지능":9104,"도리":9105,"싱글":9106,"탄탄":9107,"##버그":9108,"##마크":9109,"다큐":9110,"잔뜩":9111,"남양":9112,"학년도":9113,"약한":9114,"리모":9115,"출생":9116,"네티즌":9117,"호랑이":9118,"울리":9119,"장미":9120,"##ure":9121,"##⠀⠀⠀⠀":9122,"산소":9123,"헬스":9124,"인공지능":9125,"규범":9126,"온다":9127,"교차":9128,"우즈":9129,"였으나":9130,"등지":9131,"##쟁이":9132,"책임지":9133,"원조":9134,"등기":9135,"수위":9136,"일으킨":9137,"수습":9138,"속성":9139,"개그":9140,"가하":9141,"분배":9142,"정황":9143,"##리티":9144,"##랍니다":9145,"관해":9146,"자격증":9147,"##로우":9148,"여덟":9149,"되풀이":9150,"감싸":9151,"재학":9152,"댄스":9153,"토크":9154,"수년":9155,"##고리":9156,"착각":9157,"수소":9158,"아홉":9159,"노동부":9160,"물음":9161,"로맨":9162,"##DI":9163,"타점":9164,"##주얼":9165,"노란":9166,"동북아":9167,"##들여":9168,"변형":9169,"무인":9170,"발레":9171,"1987":9172,"저널":9173,"올릴":9174,"##오프":9175,"상한":9176,"110":9177,"머무":9178,"한양":9179,"##주의자":9180,"김광":9181,"으셨":9182,"미용":9183,"한국어":9184,"##구니":9185,"생산량":9186,"1989":9187,"도둑":9188,"삼국":9189,"토록":9190,"운동장":9191,"김민":9192,"여왕":9193,"파고":9194,"거세":9195,"걸친":9196,"##세포":9197,"수신":9198,"프랜":9199,"해져":9200,"중재":9201,"위생":9202,"숙소":9203,"맞대":9204,"무거운":9205,"생선":9206,"부추":9207,"성사":9208,"아무튼":9209,"높일":9210,"삭제":9211,"수확":9212,"모금":9213,"동행":9214,"구청장":9215,"따라가":9216,"녹음":9217,"기뻐":9218,"면담":9219,"김지":9220,"##스트라":9221,"먹방":9222,"신축":9223,"2019":9224,"Un":9225,"사흘":9226,"##ate":9227,"왕국":9228,"체중":9229,"건축물":9230,"제사":9231,"무너지":9232,"키스":9233,"가중":9234,"스튜디오":9235,"예산안":9236,"양측":9237,"파도":9238,"시립":9239,"경영진":9240,"개관":9241,"박영":9242,"공자":9243,"##식간":9244,"반사":9245,"열려":9246,"그다지":9247,"BM":9248,"성형":9249,"##거나":9250,"하천":9251,"##ue":9252,"그만두":9253,"##지니어":9254,"체질":9255,"낙찰":9256,"##릅니다":9257,"동성":9258,"벤치":9259,"전기차":9260,"패널":9261,"지르":9262,"안쪽":9263,"단행":9264,"헌신":9265,"##NA":9266,"태평양":9267,"감사원":9268,"Com":9269,"베이비":9270,"열매":9271,"도요":9272,"내릴":9273,"장인":9274,"어딘":9275,"라기":9276,"소유자":9277,"이어진":9278,"절약":9279,"현명":9280,"최후":9281,"달린":9282,"삭감":9283,"다가가":9284,"물어":9285,"군데":9286,"풍성":9287,"유물":9288,"##af":9289,"전직":9290,"##FA":9291,"광양":9292,"애니메이션":9293,"ㅎㅎㅎ":9294,"결성":9295,"커졌":9296,"청춘":9297,"##걸이":9298,"느냐고":9299,"국적":9300,"소멸":9301,"만성":9302,"느껴졌":9303,"호르":9304,"보복":9305,"##두르":9306,"신종":9307,"접어들":9308,"목포":9309,"교도":9310,"이사회":9311,"##stagram":9312,"발길":9313,"인치":9314,"관할":9315,"##무지":9316,"중립":9317,"주어진":9318,"모형":9319,"헤드":9320,"이대":9321,"수강":9322,"아이돌":9323,"히트":9324,"##외선":9325,"담론":9326,"하나하나":9327,"사명":9328,"##워드":9329,"##브리드":9330,"드립니다":9331,"##드로":9332,"Con":9333,"아랍":9334,"못지않":9335,"축산":9336,"지역구":9337,"감면":9338,"합작":9339,"웨이":9340,"임차":9341,"진전":9342,"하이브리드":9343,"광범":9344,"추상":9345,"##셔널":9346,"##저리":9347,"정무":9348,"선제":9349,"이지":9350,"편견":9351,"인접":9352,"옵션":9353,"처장":9354,"경찰관":9355,"지원금":9356,"스웨덴":9357,"상품권":9358,"면허":9359,"가죽":9360,"전락":9361,"특혜":9362,"용량":9363,"선포":9364,"맞춘":9365,"항공사":9366,"하드":9367,"끔찍":9368,"유인":9369,"통로":9370,"함부":9371,"민영":9372,"불꽃":9373,"악마":9374,"파란":9375,"왠지":9376,"표지":9377,"계승":9378,"해법":9379,"약자":9380,"날짜":9381,"사형":9382,"시체":9383,"타임스":9384,"치아":9385,"계정":9386,"순식간":9387,"영리":9388,"셔야":9389,"안성":9390,"충성":9391,"당기":9392,"찾아볼":9393,"미지":9394,"권유":9395,"엇갈":9396,"강해":9397,"레저":9398,"배울":9399,"쏟아지":9400,"야생":9401,"내각":9402,"종업":9403,"교훈":9404,"그런지":9405,"복음":9406,"여고":9407,"동쪽":9408,"중년":9409,"에어컨":9410,"가리키":9411,"추측":9412,"기어":9413,"관광지":9414,"아산":9415,"제의":9416,"빌리":9417,"가까워":9418,"우스":9419,"가톨릭":9420,"유독":9421,"물러나":9422,"선명":9423,"보리":9424,"갈비":9425,"통행":9426,"제어":9427,"꾸며":9428,"추격":9429,"밀접":9430,"바랍니다":9431,"대한항공":9432,"시비":9433,"효력":9434,"보강":9435,"영주":9436,"응답자":9437,"열풍":9438,"OE":9439,"거둔":9440,"소망":9441,"MO":9442,"##ld":9443,"모인":9444,"최강":9445,"물려":9446,"지상파":9447,"도시락":9448,"이득":9449,"일으켰":9450,"애국":9451,"하하":9452,"스러웠":9453,"막상":9454,"러브":9455,"가문":9456,"가져오":9457,"동아시아":9458,"서점":9459,"하수":9460,"신탁":9461,"약점":9462,"##버트":9463,"드래":9464,"ST":9465,"뜨겁":9466,"핑크":9467,"사이즈":9468,"재직":9469,"##국수":9470,"광화문":9471,"##그레이드":9472,"GDP":9473,"쇄신":9474,"워터":9475,"일일":9476,"열쇠":9477,"종업원":9478,"업그레이드":9479,"울음":9480,"재발":9481,"부근":9482,"사라져":9483,"해결책":9484,"배송":9485,"입력":9486,"한전":9487,"마이너":9488,"관심사":9489,"아하":9490,"저소득층":9491,"표기":9492,"과자":9493,"스킨":9494,"야채":9495,"태어났":9496,"서방":9497,"밀양":9498,"아줌":9499,"정국":9500,"클리":9501,"마비":9502,"바꾼":9503,"공영":9504,"여파":9505,"안방":9506,"게재":9507,"복구":9508,"##의식":9509,"배분":9510,"밀리":9511,"신동":9512,"고쳐":9513,"스피드":9514,"정교":9515,"서쪽":9516,"추첨":9517,"자영업":9518,"요양":9519,"언론사":9520,"사라진":9521,"##유산":9522,"출현":9523,"양반":9524,"국세청":9525,"주연":9526,"정유":9527,"아줌마":9528,"전도":9529,"재계":9530,"거품":9531,"올라오":9532,"입점":9533,"나빠":9534,"활기":9535,"부를":9536,"당선자":9537,"##파크":9538,"먹거리":9539,"버린다":9540,"##센터":9541,"항소":9542,"분담":9543,"US":9544,"외교부":9545,"강남구":9546,"검진":9547,"내장":9548,"프로세":9549,"##조리":9550,"한자":9551,"SM":9552,"유방":9553,"##로리":9554,"단편":9555,"갈아":9556,"빨라":9557,"일수록":9558,"화가":9559,"보증금":9560,"반해":9561,"수련":9562,"급격히":9563,"타율":9564,"해운대":9565,"백악":9566,"안주":9567,"당선인":9568,"내려놓":9569,"메일":9570,"거실":9571,"걸까":9572,"월세":9573,"대왕":9574,"티비":9575,"##iz":9576,"동아일보":9577,"응용":9578,"드러난":9579,"아메리카":9580,"풀리":9581,"지극":9582,"치우":9583,"한방":9584,"##PGA":9585,"140":9586,"##니스트":9587,"홍준":9588,"돌아갔":9589,"범주":9590,"유교":9591,"##저스":9592,"들렸":9593,"모험":9594,"기증":9595,"망설":9596,"생성":9597,"배우자":9598,"단말":9599,"대치":9600,"폐기물":9601,"드레스":9602,"차려":9603,"그까":9604,"대주주":9605,"장벽":9606,"참모":9607,"단정":9608,"떨어질":9609,"수질":9610,"##se":9611,"이메":9612,"##60":9613,"##ang":9614,"준다는":9615,"군부":9616,"##ich":9617,"상상력":9618,"구사":9619,"솔로":9620,"명목":9621,"페르":9622,"##타운":9623,"##유럽":9624,"넉넉":9625,"일일이":9626,"발매":9627,"##oll":9628,"inst":9629,"##ore":9630,"혼합":9631,"악기":9632,"끌어들":9633,"행운":9634,"##밀히":9635,"##동생":9636,"코미":9637,"협업":9638,"의약품":9639,"감히":9640,"열악":9641,"톡톡":9642,"자매":9643,"위해선":9644,"대세":9645,"좌석":9646,"너머":9647,"어음":9648,"중기":9649,"호르몬":9650,"써서":9651,"만주":9652,"낭만":9653,"필름":9654,"##시마":9655,"각기":9656,"##aily":9657,"나타날":9658,"매운":9659,"유감":9660,"일산":9661,"횟수":9662,"유승":9663,"벌인":9664,"경위":9665,"##ak":9666,"관리자":9667,"복용":9668,"타협":9669,"사막":9670,"기숙":9671,"민정":9672,"와중":9673,"사방":9674,"택배":9675,"피고인":9676,"##레이션":9677,"등등":9678,"전철":9679,"아이스":9680,"방금":9681,"##밀리":9682,"희생자":9683,"홍준표":9684,"##티나":9685,"트로":9686,"분량":9687,"상정":9688,"중얼":9689,"성당":9690,"으려면":9691,"비추":9692,"교역":9693,"김병":9694,"저서":9695,"보물":9696,"승점":9697,"시상식":9698,"아아":9699,"십자":9700,"마르크스":9701,"스쿨":9702,"갖췄":9703,"초등학생":9704,"LTE":9705,"게이":9706,"일제히":9707,"다면서":9708,"160":9709,"제작진":9710,"업적":9711,"간직":9712,"신나":9713,"제법":9714,"공백":9715,"공존":9716,"고가":9717,"한눈":9718,"나눈":9719,"##차례":9720,"똑똑":9721,"AP":9722,"든든":9723,"박차":9724,"집값":9725,"이메일":9726,"요새":9727,"모의":9728,"이라도":9729,"이뤄질":9730,"지루":9731,"쌓여":9732,"##배우":9733,"정화":9734,"해변":9735,"##ee":9736,"재판소":9737,"노벨":9738,"레이스":9739,"내걸":9740,"실은":9741,"##카락":9742,"1950":9743,"추위":9744,"요법":9745,"선수단":9746,"머리카락":9747,"증여":9748,"수상자":9749,"흡연":9750,"익히":9751,"이쪽":9752,"탑승":9753,"애인":9754,"##슬러":9755,"사소":9756,"회피":9757,"우대":9758,"사각":9759,"베이스":9760,"##쓰기":9761,"원화":9762,"##봐야":9763,"##다임":9764,"간호사":9765,"기르":9766,"발의":9767,"글씨":9768,"패러다임":9769,"가령":9770,"광범위":9771,"중부":9772,"향수":9773,"밝혀졌":9774,"햇살":9775,"산정":9776,"엄청나":9777,"원대":9778,"애요":9779,"오프라인":9780,"##일랜드":9781,"대충":9782,"주역":9783,"동지":9784,"##두리":9785,"##마토":9786,"어리석":9787,"브로":9788,"단절":9789,"렌즈":9790,"선보인":9791,"차분":9792,"Th":9793,"##트라":9794,"파격":9795,"부시":9796,"##개발":9797,"짜증":9798,"출구":9799,"지식인":9800,"소나무":9801,"안겨":9802,"통신사":9803,"조율":9804,"침략":9805,"SU":9806,"킬로":9807,"##man":9808,"유세":9809,"법조":9810,"금품":9811,"플라스":9812,"사령관":9813,"석탄":9814,"천문":9815,"달했":9816,"버튼":9817,"드라이":9818,"구리":9819,"산단":9820,"전이":9821,"##내리":9822,"정해진":9823,"가루":9824,"휴양":9825,"예배":9826,"강동":9827,"##드라":9828,"백악관":9829,"책정":9830,"아닌지":9831,"였을":9832,"도출":9833,"출제":9834,"소모":9835,"전방":9836,"으론":9837,"##사업":9838,"그해":9839,"거칠":9840,"때리":9841,"내신":9842,"출동":9843,"찾아왔":9844,"치명":9845,"횡령":9846,"느낀다":9847,"##지부":9848,"어렸":9849,"##ung":9850,"가르침":9851,"박원":9852,"기둥":9853,"사모":9854,"##러움":9855,"교재":9856,"보험금":9857,"배후":9858,"두려워":9859,"##인드":9860,"##ss":9861,"김일성":9862,"이듬":9863,"##로움":9864,"교통부":9865,"교양":9866,"막내":9867,"##70":9868,"수색":9869,"농어":9870,"온실":9871,"수고":9872,"보석":9873,"명소":9874,"돌보":9875,"획기":9876,"사교육":9877,"자부심":9878,"오락":9879,"지나친":9880,"치솟":9881,"지옥":9882,"까다":9883,"아님":9884,"##40":9885,"장려":9886,"드린다":9887,"##ber":9888,"경사":9889,"금요일":9890,"재해":9891,"튼튼":9892,"구장":9893,"달래":9894,"정복":9895,"##리포":9896,"잔치":9897,"막판":9898,"##수수색":9899,"에코":9900,"상용":9901,"KTX":9902,"##고속":9903,"받아들일":9904,"압수수색":9905,"##옵니다":9906,"회동":9907,"인건":9908,"콘셉트":9909,"연이":9910,"이루어져":9911,"벌여":9912,"버전":9913,"인문학":9914,"##토리":9915,"누릴":9916,"놀란":9917,"터치":9918,"ㅜㅜ":9919,"부착":9920,"다채":9921,"외쳤":9922,"주유소":9923,"반갑":9924,"나뉘":9925,"처녀":9926,"치밀":9927,"들으면":9928,"라이트":9929,"구해":9930,"예언":9931,"서사":9932,"188":9933,"LA":9934,"발상":9935,"나노":9936,"추산":9937,"박주":9938,"##임스":9939,"선비":9940,"이듬해":9941,"기세":9942,"구절":9943,"비트":9944,"엑스포":9945,"귀찮":9946,"##러졌":9947,"반환":9948,"고성":9949,"도우":9950,"그늘":9951,"자질":9952,"척추":9953,"이룰":9954,"##잖아":9955,"##르르":9956,"소집":9957,"인건비":9958,"최우선":9959,"##ence":9960,"법령":9961,"비단":9962,"##olog":9963,"유료":9964,"##매김":9965,"본다면":9966,"새삼":9967,"##ong":9968,"동굴":9969,"자리매김":9970,"달렸":9971,"각지":9972,"흘러나":9973,"어색":9974,"공연장":9975,"귀신":9976,"##비드":9977,"화살":9978,"사료":9979,"기울여":9980,"청원":9981,"되살":9982,"##테이너":9983,"보람":9984,"천장":9985,"그런가":9986,"원작":9987,"향했":9988,"센서":9989,"쓴다":9990,"들어올":9991,"고치":9992,"매트":9993,"수송":9994,"분단":9995,"키워드":9996,"##신문":9997,"원형":9998,"프랜차":9999,"외출":10000,"배신":10001,"##셔츠":10002,"엔지니어":10003,"되돌아":10004,"##저트":10005,"비자":10006,"기한":10007,"##교통":10008,"생긴다":10009,"야기":10010,"실감":10011,"##금리":10012,"차트":10013,"자립":10014,"외곽":10015,"##베이":10016,"저렇게":10017,"리스":10018,"메달":10019,"북측":10020,"프랜차이즈":10021,"원금":10022,"앞세워":10023,"##바이트":10024,"An":10025,"설사":10026,"CCTV":10027,"다름없":10028,"남용":10029,"인삼":10030,"흥원":10031,"신생":10032,"FI":10033,"껍질":10034,"끈다":10035,"한국은행":10036,"나눌":10037,"토로":10038,"미흡":10039,"좀처럼":10040,"합창":10041,"극심":10042,"다닐":10043,"옮겼":10044,"중산":10045,"고는":10046,"협동조합":10047,"클래스":10048,"왕조":10049,"감탄":10050,"강변":10051,"손자":10052,"배구":10053,"푸르":10054,"디저트":10055,"할수록":10056,"화두":10057,"물결":10058,"시어":10059,"진동":10060,"이뤄지지":10061,"##머스":10062,"트랙":10063,"BMW":10064,"가져가":10065,"##ook":10066,"ICT":10067,"침몰":10068,"매진":10069,"제임스":10070,"시리아":10071,"정시":10072,"배포":10073,"부합":10074,"CD":10075,"##IC":10076,"둔화":10077,"돌아다니":10078,"공산당":10079,"실효":10080,"베를":10081,"관하":10082,"국민은행":10083,"양파":10084,"중지":10085,"정직":10086,"119":10087,"##행위":10088,"놓인":10089,"이적":10090,"이원":10091,"○○":10092,"잡히":10093,"초콜":10094,"백신":10095,"MC":10096,"청탁":10097,"케이크":10098,"미스":10099,"발걸음":10100,"농도":10101,"외식":10102,"행하":10103,"국악":10104,"추경":10105,"##업자":10106,"간장":10107,"차림":10108,"탈당":10109,"상향":10110,"이력":10111,"피의자":10112,"##집니다":10113,"인자":10114,"##코올":10115,"사도":10116,"천사":10117,"이어져":10118,"신재":10119,"모씨":10120,"파장":10121,"그루":10122,"전임":10123,"보행":10124,"DM":10125,"##ian":10126,"##서리":10127,"공군":10128,"월요일":10129,"코미디":10130,"##ain":10131,"임대료":10132,"더라면":10133,"옮긴":10134,"##운서":10135,"암시":10136,"내역":10137,"충동":10138,"심리학":10139,"##리케이션":10140,"##PS":10141,"걸릴":10142,"선거법":10143,"백인":10144,"##tive":10145,"잠재력":10146,"아나운서":10147,"장기간":10148,"이만":10149,"단식":10150,"김연아":10151,"은혜":10152,"이례":10153,"눌러":10154,"비명":10155,"해야지":10156,"식탁":10157,"공조":10158,"대략":10159,"괴물":10160,"##아웃":10161,"중복":10162,"숙제":10163,"기업인":10164,"검정":10165,"송파":10166,"중세":10167,"##시설":10168,"##걸리":10169,"소설가":10170,"달라졌":10171,"의제":10172,"구제역":10173,"가치관":10174,"맡겨":10175,"을수록":10176,"청취":10177,"져야":10178,"갑작스":10179,"제철":10180,"크루즈":10181,"##몬드":10182,"폭넓":10183,"일가":10184,"목록":10185,"ch":10186,"con":10187,"는구나":10188,"비틀":10189,"윌리":10190,"엉덩이":10191,"광복":10192,"사설":10193,"산출":10194,"개개":10195,"발자":10196,"##경북":10197,"복무":10198,"골든":10199,"막걸리":10200,"강정":10201,"정립":10202,"방영":10203,"달려가":10204,"쾌적":10205,"만족도":10206,"필연":10207,"##ll":10208,"평론가":10209,"매개":10210,"모드":10211,"차가운":10212,"지형":10213,"펼쳐지":10214,"우울증":10215,"일련":10216,"##ear":10217,"플라스틱":10218,"잠수":10219,"세이":10220,"재킷":10221,"에다가":10222,"인과":10223,"열릴":10224,"리듬":10225,"##ith":10226,"일으켜":10227,"이어진다":10228,"간격":10229,"##널드":10230,"난민":10231,"전격":10232,"풍요":10233,"OECD":10234,"동호":10235,"병역":10236,"서정":10237,"학대":10238,"인가요":10239,"글쓰기":10240,"동포":10241,"##임금":10242,"ㅠㅠㅠ":10243,"속속":10244,"유진":10245,"파산":10246,"한겨":10247,"성폭력":10248,"컨테이너":10249,"해치":10250,"그토록":10251,"봐서":10252,"실습":10253,"오브":10254,"제이":10255,"반기":10256,"06":10257,"길래":10258,"##ov":10259,"흥국":10260,"국수":10261,"산다":10262,"몸매":10263,"안개":10264,"온통":10265,"##end":10266,"액수":10267,"알코올":10268,"며느리":10269,"설탕":10270,"신한은행":10271,"몰라도":10272,"혼인":10273,"수차례":10274,"파라":10275,"어선":10276,"전교조":10277,"고고":10278,"당대":10279,"##어요":10280,"04":10281,"렀다":10282,"전수":10283,"어떡":10284,"국채":10285,"상해":10286,"낚시":10287,"전송":10288,"신약":10289,"##원장":10290,"햇빛":10291,"올라갔":10292,"영구":10293,"플랜트":10294,"연동":10295,"회화":10296,"스토어":10297,"철학자":10298,"##산부":10299,"들어간다":10300,"한겨레":10301,"클린턴":10302,"스페셜":10303,"총수":10304,"합법":10305,"카운":10306,"연비":10307,"연구자":10308,"역동":10309,"종사":10310,"출국":10311,"수혜":10312,"헌재":10313,"정조":10314,"1986":10315,"서장":10316,"상관없이":10317,"##iet":10318,"보살":10319,"엉뚱":10320,"종사자":10321,"다시피":10322,"##폴리오":10323,"긴장감":10324,"광산":10325,"적혀":10326,"잉글":10327,"제로":10328,"포트폴리오":10329,"수호":10330,"함부로":10331,"역임":10332,"수여":10333,"쿠폰":10334,"달라진":10335,"분포":10336,"##사리":10337,"딸기":10338,"봉사자":10339,"특강":10340,"맞물":10341,"매번":10342,"상의":10343,"민속":10344,"별명":10345,"실전":10346,"오스트":10347,"유성":10348,"약해":10349,"천지":10350,"농림":10351,"##위원회":10352,"주권":10353,"수장":10354,"주전":10355,"##평가":10356,"바꿨":10357,"좌파":10358,"##와서":10359,"##연구":10360,"마이클":10361,"김선":10362,"교부":10363,"이어서":10364,"알파":10365,"여전":10366,"걸어가":10367,"에이스":10368,"부풀":10369,"다가왔":10370,"군주":10371,"학계":10372,"##실험":10373,"##ory":10374,"일간":10375,"귀여운":10376,"우세":10377,"배추":10378,"끊이":10379,"심상":10380,"유머":10381,"위법":10382,"뒤따":10383,"##무기":10384,"우물":10385,"##스크림":10386,"아이스크림":10387,"퍼져":10388,"##소연":10389,"##IP":10390,"대여":10391,"해산":10392,"홍수":10393,"유래":10394,"조회":10395,"고난":10396,"사망자":10397,"간섭":10398,"넘쳐":10399,"수원시":10400,"오만":10401,"휩싸":10402,"김장":10403,"유의":10404,"생각나":10405,"돌아갈":10406,"자유주의":10407,"오케스트라":10408,"간사":10409,"ET":10410,"공통점":10411,"이인":10412,"홍대":10413,"봉투":10414,"##레이크":10415,"그제":10416,"##베이터":10417,"볼거리":10418,"꼼꼼히":10419,"침입":10420,"브라운":10421,"숨기":10422,"팔리":10423,"통영":10424,"떠날":10425,"부유":10426,"박지성":10427,"##소시":10428,"조속":10429,"털어놓":10430,"관건":10431,"메리":10432,"de":10433,"비닐":10434,"##버님":10435,"라이브":10436,"후쿠":10437,"퍼지":10438,"키즈":10439,"연도":10440,"으라":10441,"폭로":10442,"취해":10443,"리서":10444,"변했":10445,"평일":10446,"상원":10447,"##난히":10448,"변함":10449,"그랜드":10450,"보름":10451,"친화":10452,"계약서":10453,"우편":10454,"찾아온":10455,"유가족":10456,"업소":10457,"극히":10458,"인내":10459,"어긋":10460,"장난감":10461,"이대로":10462,"복제":10463,"초록":10464,"##멘트":10465,"양주":10466,"##경기":10467,"휴일":10468,"커질":10469,"이길":10470,"배고":10471,"신흥":10472,"잡혀":10473,"제보":10474,"거꾸":10475,"트레":10476,"교감":10477,"오이":10478,"광부":10479,"적시":10480,"##ant":10481,"가산":10482,"박종":10483,"탐방":10484,"##ark":10485,"시야":10486,"##릭스":10487,"방통":10488,"전복":10489,"이해관계":10490,"날리":10491,"내다":10492,"지역민":10493,"농성":10494,"볶음":10495,"조카":10496,"스카이":10497,"으니까요":10498,"지원자":10499,"대사관":10500,"김무성":10501,"자외선":10502,"##트롤":10503,"천주":10504,"여름철":10505,"온천":10506,"기각":10507,"스펙":10508,"신랑":10509,"훌쩍":10510,"스물":10511,"##볶이":10512,"산학":10513,"아일랜드":10514,"매립":10515,"고독":10516,"모니터링":10517,"밸리":10518,"101":10519,"펼쳐진다":10520,"초콜릿":10521,"도요타":10522,"##바다":10523,"말레이":10524,"##관위":10525,"볼까":10526,"혐오":10527,"이뤘":10528,"우회":10529,"적성":10530,"빼놓":10531,"대법관":10532,"냉정":10533,"탄압":10534,"가져야":10535,"넘어섰":10536,"급락":10537,"겁니까":10538,"걸맞":10539,"놀랍":10540,"성장세":10541,"진도":10542,"부엌":10543,"##치기":10544,"차익":10545,"입국":10546,"##ust":10547,"단말기":10548,"크로":10549,"김승":10550,"##려고":10551,"리서치":10552,"최경":10553,"변해":10554,"성찰":10555,"고래":10556,"해임":10557,"거제":10558,"손쉽":10559,"쿼터":10560,"구워":10561,"우아":10562,"수직":10563,"##ly":10564,"고속도로":10565,"##ass":10566,"저질":10567,"체인":10568,"경전":10569,"관해서":10570,"공문":10571,"##커녕":10572,"그쪽":10573,"나비":10574,"손바닥":10575,"딱딱":10576,"적대":10577,"스타트업":10578,"발음":10579,"아티":10580,"처한":10581,"지우":10582,"##방울":10583,"스틸":10584,"여학생":10585,"양육":10586,"전진":10587,"##운다":10588,"##버리":10589,"서른":10590,"재테크":10591,"##for":10592,"##바라":10593,"##같이":10594,"##마다":10595,"바디":10596,"미드":10597,"사면":10598,"클러":10599,"발탁":10600,"어때":10601,"반란":10602,"대입":10603,"첨가":10604,"넷째":10605,"핵실험":10606,"마음대로":10607,"현관":10608,"수필":10609,"##ond":10610,"##먼스":10611,"전문점":10612,"대수":10613,"지문":10614,"천국":10615,"서버":10616,"장교":10617,"사나이":10618,"하버":10619,"은데요":10620,"약하":10621,"##튜브":10622,"어째":10623,"위력":10624,"공감대":10625,"##욕장":10626,"플레이오프":10627,"노려":10628,"##나물":10629,"주무":10630,"선원":10631,"뜨거":10632,"엘리트":10633,"유튜브":10634,"##자원":10635,"당할":10636,"카이":10637,"보습":10638,"다지":10639,"성령":10640,"나마":10641,"슬픈":10642,"##ER":10643,"##ast":10644,"성폭행":10645,"박성":10646,"수제":10647,"마사지":10648,"상기":10649,"기장":10650,"##공항":10651,"안건":10652,"박찬":10653,"오사":10654,"##ational":10655,"##ry":10656,"진정한":10657,"이순신":10658,"알렉":10659,"경과":10660,"돌이":10661,"1985":10662,"은근":10663,"서식":10664,"##센티브":10665,"인센티브":10666,"모른다는":10667,"양극":10668,"영문":10669,"감독원":10670,"아르바이트":10671,"보스":10672,"##per":10673,"경호":10674,"선보일":10675,"밀집":10676,"떠들":10677,"MOU":10678,"활짝":10679,"단가":10680,"조짐":10681,"농부":10682,"총력":10683,"이화":10684,"##크라":10685,"##고사":10686,"##소문":10687,"돋보이":10688,"마셨":10689,"통산":10690,"백지":10691,"할리":10692,"##물산":10693,"##동력":10694,"경유":10695,"괜히":10696,"불빛":10697,"편한":10698,"##av":10699,"초보":10700,"접근성":10701,"사제":10702,"참석자":10703,"직선":10704,"표출":10705,"거꾸로":10706,"신하":10707,"본성":10708,"상관없":10709,"소서":10710,"베를린":10711,"줄곧":10712,"섬세":10713,"파문":10714,"국왕":10715,"선조":10716,"사양":10717,"접시":10718,"분과":10719,"맛보":10720,"잠들":10721,"떡볶이":10722,"정의당":10723,"셔츠":10724,"김주":10725,"황당":10726,"실리콘":10727,"아쉬운":10728,"만점":10729,"씨앗":10730,"##스카":10731,"노르":10732,"고작":10733,"오버":10734,"교대":10735,"##포먼스":10736,"회원국":10737,"##수기":10738,"집중력":10739,"퍼포먼스":10740,"##키스탄":10741,"삼성물산":10742,"탐색":10743,"미분":10744,"세입":10745,"미끄":10746,"가로막":10747,"위임":10748,"해경":10749,"권역":10750,"##age":10751,"마운드":10752,"유비":10753,"##리포니아":10754,"섹스":10755,"서면":10756,"육박":10757,"체감":10758,"밥상":10759,"토마토":10760,"박태":10761,"##오스":10762,"올레":10763,"마이너스":10764,"LCD":10765,"##ism":10766,"멈춰":10767,"캘리포니아":10768,"자이":10769,"입체":10770,"SUV":10771,"영세":10772,"배수":10773,"마포":10774,"짐승":10775,"검거":10776,"줄줄":10777,"쫓겨":10778,"모호":10779,"취한":10780,"납치":10781,"허물":10782,"쓰여":10783,"##감치":10784,"문헌":10785,"택지":10786,"##ack":10787,"스무":10788,"##찌감치":10789,"컨디션":10790,"줘서":10791,"말투":10792,"음모":10793,"양해":10794,"간단히":10795,"대인":10796,"명확히":10797,"합계":10798,"깊숙":10799,"말리":10800,"무겁":10801,"창단":10802,"프로모":10803,"버섯":10804,"잠정":10805,"##가리":10806,"이불":10807,"재선":10808,"발판":10809,"두부":10810,"##테스":10811,"급히":10812,"이경":10813,"반지":10814,"손목":10815,"상수":10816,"솜씨":10817,"객실":10818,"다투":10819,"부수":10820,"자책":10821,"앞당":10822,"포지":10823,"##oh":10824,"이노":10825,"잊어버":10826,"했으니":10827,"시속":10828,"보좌관":10829,"170":10830,"랍니다":10831,"불쾌":10832,"머물렀":10833,"창구":10834,"말레이시아":10835,"항구":10836,"##EA":10837,"요금제":10838,"치료제":10839,"수다":10840,"원한다":10841,"거북":10842,"전경":10843,"들어섰":10844,"이승만":10845,"몰두":10846,"UN":10847,"##다듬":10848,"여보":10849,"마른":10850,"다툼":10851,"임의":10852,"##OS":10853,"중소형":10854,"문인":10855,"본회의":10856,"큰일":10857,"##호텔":10858,"친척":10859,"창업자":10860,"지체":10861,"전월":10862,"##테일":10863,"##징금":10864,"특권":10865,"크리":10866,"저절":10867,"용이":10868,"타선":10869,"만지":10870,"엘리베이터":10871,"크로스":10872,"KA":10873,"후퇴":10874,"티셔츠":10875,"화보":10876,"력사":10877,"말라":10878,"간신":10879,"동정":10880,"시카":10881,"진압":10882,"저절로":10883,"가꾸":10884,"총액":10885,"으라고":10886,"장단":10887,"게시판":10888,"동국":10889,"##살이":10890,"노화":10891,"##동자":10892,"##그라":10893,"한잔":10894,"MS":10895,"마신":10896,"세수":10897,"마세요":10898,"관계없이":10899,"내재":10900,"##FC":10901,"대중교통":10902,"350":10903,"서적":10904,"친정":10905,"자진":10906,"조류":10907,"된장":10908,"제치":10909,"블라":10910,"특집":10911,"음식물":10912,"금연":10913,"회의실":10914,"시행령":10915,"고마워":10916,"베네":10917,"휴게":10918,"컨트롤":10919,"속한":10920,"납득":10921,"##영향":10922,"##운전":10923,"수목":10924,"다각":10925,"길러":10926,"압축":10927,"마인드":10928,"프로모션":10929,"##ne":10930,"파생":10931,"끄덕였":10932,"약세":10933,"동결":10934,"휩쓸":10935,"daily":10936,"스타일링":10937,"정자":10938,"공론":10939,"연루":10940,"곡선":10941,"임진":10942,"디스크":10943,"견인":10944,"화상":10945,"지극히":10946,"부친":10947,"옹호":10948,"웬만":10949,"자란":10950,"윌리엄":10951,"장래":10952,"여가":10953,"##싸움":10954,"아버님":10955,"방한":10956,"유쾌":10957,"가축":10958,"사직":10959,"난리":10960,"기하":10961,"후손":10962,"Pro":10963,"불쌍":10964,"방문객":10965,"세균":10966,"재수":10967,"114":10968,"##블릿":10969,"꼬집":10970,"알레":10971,"가해자":10972,"줍니다":10973,"소액":10974,"고양시":10975,"박상":10976,"변명":10977,"잇달":10978,"고속도":10979,"아니하":10980,"우호":10981,"##소통":10982,"면모":10983,"Ar":10984,"커버":10985,"온실가스":10986,"##EC":10987,"김형":10988,"디젤":10989,"뭔지":10990,"체류":10991,"원망":10992,"기량":10993,"함정":10994,"연평균":10995,"에피":10996,"SP":10997,"##테이션":10998,"득표":10999,"성주":11000,"##규모":11001,"설마":11002,"지지자":11003,"아랫":11004,"##타르":11005,"소리쳤":11006,"각별":11007,"전산":11008,"지장":11009,"차리":11010,"물체":11011,"염색":11012,"설화":11013,"##더스":11014,"해지":11015,"지갑":11016,"##연대":11017,"삼각":11018,"바로잡":11019,"튀어나":11020,"약정":11021,"필드":11022,"##TI":11023,"마루":11024,"예민":11025,"농어촌":11026,"지켜야":11027,"려던":11028,"밀착":11029,"화력":11030,"문법":11031,"선착":11032,"페어":11033,"##mer":11034,"의의":11035,"##LS":11036,"오렌":11037,"최저임금":11038,"누리꾼":11039,"유죄":11040,"1984":11041,"실려":11042,"는군":11043,"운반":11044,"그레이":11045,"##쳐서":11046,"파스타":11047,"의사소통":11048,"STX":11049,"가뭄":11050,"퇴진":11051,"헬기":11052,"과다":11053,"억지로":11054,"중심지":11055,"총체":11056,"저지른":11057,"피트":11058,"##ect":11059,"한인":11060,"선장":11061,"싸이":11062,"여대":11063,"알렸":11064,"강호":11065,"실상":11066,"##서구":11067,"져서":11068,"고립":11069,"환원":11070,"쏟아져":11071,"자재":11072,"귀엽":11073,"기생":11074,"포로":11075,"클라우드":11076,"군산":11077,"조조":11078,"치과":11079,"연내":11080,"가마":11081,"기숙사":11082,"이목":11083,"행장":11084,"행사장":11085,"노라":11086,"부른":11087,"흘렀":11088,"시끄":11089,"##구석":11090,"##태프":11091,"재즈":11092,"단서":11093,"설득력":11094,"어린아이":11095,"꾸려":11096,"법인세":11097,"마셔":11098,"캐스":11099,"잔인":11100,"과실":11101,"게이트":11102,"##데스":11103,"인명":11104,"어치":11105,"정동":11106,"##저우":11107,"회생":11108,"검출":11109,"##제철":11110,"KBO":11111,"어딘가":11112,"##돌이":11113,"손길":11114,"지켰":11115,"하원":11116,"금강산":11117,"두꺼":11118,"급하":11119,"정년":11120,"동문":11121,"태블릿":11122,"기인":11123,"##플러스":11124,"홍성":11125,"언론인":11126,"스테이크":11127,"학급":11128,"187":11129,"신자":11130,"통일부":11131,"추신":11132,"동경":11133,"미학":11134,"염증":11135,"파운드":11136,"신년":11137,"##ight":11138,"프로세스":11139,"정몽":11140,"해피":11141,"집필":11142,"##발전":11143,"성남시":11144,"광경":11145,"애플리케이션":11146,"오렌지":11147,"##겹살":11148,"말미":11149,"날카로운":11150,"으세요":11151,"나뭇":11152,"##멘터리":11153,"쏠리":11154,"아사":11155,"이석":11156,"내포":11157,"노트북":11158,"불어넣":11159,"##기야":11160,"잃어버린":11161,"문예":11162,"##겨운":11163,"뜻밖":11164,"선별":11165,"##스테":11166,"마음껏":11167,"an":11168,"PR":11169,"이현":11170,"심심":11171,"이따":11172,"TF":11173,"##pp":11174,"작정":11175,"대요":11176,"발령":11177,"##기구":11178,"내다보":11179,"삼겹살":11180,"##헨티나":11181,"거니":11182,"로켓":11183,"##적으로":11184,"##이팅":11185,"연안":11186,"아주머니":11187,"연일":11188,"움직일":11189,"하이닉스":11190,"다큐멘터리":11191,"김준":11192,"##지대":11193,"숨진":11194,"고구마":11195,"재빨리":11196,"미처":11197,"정했":11198,"에프":11199,"유보":11200,"소규모":11201,"##세이":11202,"##oT":11203,"지친":11204,"도장":11205,"실재":11206,"지난번":11207,"##화기":11208,"빠질":11209,"뿌려":11210,"아르헨티나":11211,"잔디":11212,"##TO":11213,"환호":11214,"겨울철":11215,"걸림":11216,"준다고":11217,"전성":11218,"##너스":11219,"움직여":11220,"낙관":11221,"문경":11222,"우산":11223,"담임":11224,"##병대":11225,"타수":11226,"살아온":11227,"##타리":11228,"출력":11229,"관습":11230,"손흥":11231,"##로나":11232,"미뤄":11233,"잉글랜드":11234,"다닌":11235,"롯데마트":11236,"이별":11237,"징수":11238,"고의":11239,"란다":11240,"불길":11241,"mm":11242,"충고":11243,"##ary":11244,"학살":11245,"개개인":11246,"모기":11247,"손흥민":11248,"산악":11249,"어미":11250,"캠핑":11251,"포토":11252,"지워":11253,"##먼트":11254,"유신":11255,"예뻐":11256,"크다":11257,"##협회":11258,"울려":11259,"경쟁자":11260,"##에이":11261,"강자":11262,"회상":11263,"신도":11264,"메디":11265,"버디":11266,"ㆍ중":11267,"결함":11268,"남양주":11269,"샤워":11270,"배럴":11271,"1200":11272,"그렸":11273,"수법":11274,"박원순":11275,"원자재":11276,"모방":11277,"방울":11278,"##자치":11279,"폭염":11280,"고등학생":11281,"술집":11282,"마실":11283,"죽여":11284,"홈플러스":11285,"라구":11286,"대문":11287,"무늬":11288,"스러움":11289,"박계":11290,"현수":11291,"##뜨린":11292,"##진보":11293,"IoT":11294,"폭풍":11295,"삼진":11296,"유니폼":11297,"텍스":11298,"가져왔":11299,"가늠":11300,"던진":11301,"##매매":11302,"몰입":11303,"질주":11304,"마냥":11305,"이광":11306,"186":11307,"미스터":11308,"호평":11309,"강구":11310,"나간다":11311,"샌드":11312,"단골":11313,"2500":11314,"일찌감치":11315,"문화유산":11316,"한식":11317,"해킹":11318,"정문":11319,"신다":11320,"태권":11321,"라든가":11322,"효성":11323,"##우리":11324,"덩어리":11325,"추신수":11326,"메모리":11327,"1982":11328,"색다른":11329,"각광":11330,"민족주의":11331,"##숭이":11332,"##사람":11333,"전염":11334,"불펜":11335,"영등":11336,"복도":11337,"매물":11338,"마찰":11339,"사마":11340,"파동":11341,"미분양":11342,"연어":11343,"청중":11344,"분해":11345,"En":11346,"팽팽":11347,"방과":11348,"##ens":11349,"에드":11350,"준수":11351,"일생":11352,"be":11353,"일까요":11354,"피터":11355,"기업가":11356,"서원":11357,"접종":11358,"중학생":11359,"기업체":11360,"명상":11361,"법관":11362,"존나":11363,"마술":11364,"112":11365,"##도어":11366,"떨어진다":11367,"태우":11368,"부평":11369,"폭스":11370,"##공정":11371,"구할":11372,"is":11373,"탈모":11374,"이견":11375,"경보":11376,"닥터":11377,"실린":11378,"##여행":11379,"가파":11380,"이식":11381,"추운":11382,"프레임":11383,"독립운동":11384,"더위":11385,"개체":11386,"끼치":11387,"넘겼":11388,"##ib":11389,"일러":11390,"결산":11391,"카르":11392,"소신":11393,"원시":11394,"소니":11395,"손꼽":11396,"대구경북":11397,"임용":11398,"저마다":11399,"국한":11400,"명동":11401,"경인":11402,"제압":11403,"테크노":11404,"이색":11405,"치안":11406,"뚜껑":11407,"하트":11408,"다듬":11409,"판교":11410,"어휘":11411,"항해":11412,"수요자":11413,"별개":11414,"고종":11415,"##피탈":11416,"공격수":11417,"HD":11418,"유예":11419,"개조":11420,"당뇨병":11421,"##높이":11422,"정진":11423,"석사":11424,"탐사":11425,"모양새":11426,"증후":11427,"##ice":11428,"상표":11429,"날아가":11430,"로움":11431,"공로":11432,"정전":11433,"설교":11434,"박지원":11435,"버거":11436,"악재":11437,"소상":11438,"사회단체":11439,"현대인":11440,"신조":11441,"##90":11442,"다이아":11443,"머니":11444,"인지도":11445,"##셀러":11446,"펼칠":11447,"공구":11448,"시흥":11449,"##ct":11450,"채취":11451,"강물":11452,"선관위":11453,"쇠고기":11454,"생겨나":11455,"두뇌":11456,"##tern":11457,"vs":11458,"폴란드":11459,"유승민":11460,"해온":11461,"일괄":11462,"적당히":11463,"문단":11464,"질렀":11465,"여겼":11466,"고찰":11467,"지킬":11468,"작곡가":11469,"감찰":11470,"이진":11471,"로고":11472,"선대":11473,"장마":11474,"##금자리":11475,"일본군":11476,"Sp":11477,"내정자":11478,"후자":11479,"##포트":11480,"상시":11481,"부임":11482,"초코":11483,"보금자리":11484,"유한":11485,"원수":11486,"애써":11487,"안타까운":11488,"장병":11489,"미미":11490,"항쟁":11491,"깔려":11492,"영재":11493,"칼럼":11494,"신차":11495,"입건":11496,"미네":11497,"격렬":11498,"도당":11499,"축복":11500,"특구":11501,"##MC":11502,"OS":11503,"##보드":11504,"연초":11505,"클렌":11506,"인조":11507,"이완":11508,"막히":11509,"SS":11510,"실존":11511,"센트":11512,"금세":11513,"도래":11514,"##부인":11515,"청렴":11516,"소아":11517,"하향":11518,"유난히":11519,"조그만":11520,"##ex":11521,"궁금증":11522,"통찰":11523,"실명":11524,"문체":11525,"내년도":11526,"공판":11527,"그래픽":11528,"타고":11529,"탈퇴":11530,"분비":11531,"가설":11532,"후진":11533,"손수":11534,"##사스":11535,"경품":11536,"우월":11537,"내쉬":11538,"자르":11539,"발병":11540,"##프리카":11541,"남짓":11542,"대명":11543,"테니스":11544,"애매":11545,"위조":11546,"간신히":11547,"Sh":11548,"동상":11549,"법제":11550,"원로":11551,"폐하":11552,"메가":11553,"여정":11554,"실물":11555,"소파":11556,"취할":11557,"기원전":11558,"산지":11559,"치른":11560,"##진보당":11561,"비대위":11562,"백두":11563,"진해":11564,"할지라도":11565,"보드":11566,"눈부":11567,"연소":11568,"내세워":11569,"가담":11570,"오산":11571,"기득":11572,"유익":11573,"소폭":11574,"아티스트":11575,"탱크":11576,"멋있":11577,"주축":11578,"샴푸":11579,"냉동":11580,"주저앉":11581,"장거리":11582,"장터":11583,"통합진보당":11584,"절제":11585,"시설물":11586,"핵무기":11587,"비춰":11588,"드문":11589,"경희":11590,"음원":11591,"핑계":11592,"##추어":11593,"아웃도어":11594,"빠져나가":11595,"충당":11596,"센스":11597,"증설":11598,"달라질":11599,"변호인":11600,"##성이":11601,"공모전":11602,"천주교":11603,"종말":11604,"음악회":11605,"머물러":11606,"##10":11607,"지리산":11608,"수첩":11609,"신문사":11610,"문항":11611,"해수욕장":11612,"리드":11613,"울산시":11614,"##타이":11615,"몰락":11616,"##qu":11617,"드론":11618,"리뷰":11619,"걸림돌":11620,"요령":11621,"스윙":11622,"레인":11623,"손잡":11624,"돌아올":11625,"벤츠":11626,"##징어":11627,"묵묵":11628,"##ES":11629,"카라":11630,"게끔":11631,"때려":11632,"경감":11633,"통계청":11634,"과태":11635,"민선":11636,"번쩍":11637,"한복":11638,"불참":11639,"##orea":11640,"##IST":11641,"할까요":11642,"##줄기":11643,"초상":11644,"##AS":11645,"남다른":11646,"어머님":11647,"##네스":11648,"하락세":11649,"브루":11650,"넓혀":11651,"지음":11652,"과태료":11653,"습득":11654,"외상":11655,"Press":11656,"능동":11657,"드린":11658,"선동":11659,"겸손":11660,"Re":11661,"외화":11662,"나주":11663,"대두":11664,"관내":11665,"남매":11666,"견딜":11667,"볼넷":11668,"1979":11669,"넓히":11670,"선점":11671,"왜냐면":11672,"근절":11673,"적금":11674,"화자":11675,"사귀":11676,"구이":11677,"용병":11678,"벗어난":11679,"어이":11680,"지면":11681,"동방":11682,"모자라":11683,"##일러":11684,"비스":11685,"휘발":11686,"KO":11687,"포드":11688,"마리아":11689,"결과물":11690,"긴밀":11691,"증가세":11692,"상임위":11693,"군민":11694,"심층":11695,"1983":11696,"각도":11697,"##균관":11698,"원피스":11699,"박탈":11700,"무수":11701,"##벌이":11702,"루이":11703,"중화":11704,"가세":11705,"당사":11706,"진한":11707,"##ace":11708,"##퇴근":11709,"08":11710,"바치":11711,"명사":11712,"##나들":11713,"1930":11714,"스미":11715,"남미":11716,"조립":11717,"##MA":11718,"##정부":11719,"수평":11720,"침투":11721,"떨리":11722,"러닝":11723,"벼슬":11724,"제네":11725,"##생명":11726,"왕실":11727,"중형":11728,"시진":11729,"시일":11730,"후유":11731,"표본":11732,"##모습":11733,"울릉":11734,"환승":11735,"녹화":11736,"핸드폰":11737,"명심":11738,"모욕":11739,"독려":11740,"꾸미":11741,"닷컴":11742,"전시관":11743,"성균관":11744,"기피":11745,"비비":11746,"넘어선":11747,"다저스":11748,"##벤션":11749,"삼성그룹":11750,"응모":11751,"경연":11752,"아마추어":11753,"중국어":11754,"장례식":11755,"역세":11756,"증후군":11757,"주의자":11758,"DNA":11759,"조형":11760,"코레":11761,"다녀왔":11762,"기꺼":11763,"재편":11764,"##이도":11765,"##경제":11766,"지칭":11767,"tv":11768,"결실":11769,"시공사":11770,"입수":11771,"막강":11772,"신용카드":11773,"캐스팅":11774,"소박":11775,"클러스터":11776,"뒤지":11777,"KCC":11778,"국외":11779,"비빔":11780,"모발":11781,"홍삼":11782,"발송":11783,"버터":11784,"국지":11785,"여긴":11786,"분수":11787,"워킹":11788,"레이저":11789,"더듬":11790,"앤드":11791,"국고":11792,"고심":11793,"직권":11794,"제자리":11795,"##르기":11796,"##합니다":11797,"십자가":11798,"바짝":11799,"타결":11800,"토양":11801,"바뀔":11802,"상점":11803,"부지런":11804,"전두":11805,"평상":11806,"바나":11807,"포스터":11808,"##엑스":11809,"텍사스":11810,"##one":11811,"듭니다":11812,"카지":11813,"만두":11814,"이케":11815,"시크":11816,"오디션":11817,"훗날":11818,"##파이":11819,"믹스":11820,"벗어날":11821,"요렇게":11822,"권익":11823,"중앙은행":11824,"##────":11825,"달걀":11826,"컨벤션":11827,"조망":11828,"합격자":11829,"돼지고기":11830,"만물":11831,"유기농":11832,"##조선":11833,"105":11834,"대담":11835,"연체":11836,"라스":11837,"세자":11838,"##베르":11839,"클릭":11840,"허공":11841,"##프리":11842,"방송국":11843,"끌어올리":11844,"입각":11845,"국군":11846,"밤새":11847,"붙였":11848,"무심":11849,"판타":11850,"스며":11851,"증오":11852,"상류":11853,"페미":11854,"스리":11855,"하청":11856,"일어서":11857,"영등포":11858,"##소드":11859,"##ㅜㅜ":11860,"막혀":11861,"퇴출":11862,"대피":11863,"어야지":11864,"히로":11865,"무작":11866,"라인업":11867,"날려":11868,"기미":11869,"그러다가":11870,"대리점":11871,"사령부":11872,"##올랐":11873,"안드로":11874,"섹시":11875,"맨날":11876,"시한":11877,"##RA":11878,"동창":11879,"풍력":11880,"갇혀":11881,"무제":11882,"열망":11883,"취했":11884,"신지":11885,"일명":11886,"레오":11887,"##소시엄":11888,"표창":11889,"귀한":11890,"실로":11891,"컨소시엄":11892,"최우수":11893,"집어넣":11894,"시당":11895,"독창":11896,"쌓이":11897,"오사카":11898,"만찬":11899,"생물학":11900,"논평":11901,"옥수수":11902,"바이올":11903,"로버트":11904,"도널드":11905,"미팅":11906,"산행":11907,"원산":11908,"포부":11909,"벗겨":11910,"르노":11911,"정선":11912,"##테랑":11913,"##퍼런스":11914,"복사":11915,"공예":11916,"산물":11917,"사운드":11918,"바이어":11919,"정산":11920,"도마":11921,"웨딩":11922,"포르투":11923,"의대":11924,"친근":11925,"자궁":11926,"입양":11927,"초고":11928,"해답":11929,"비해서":11930,"여느":11931,"본보":11932,"횡단":11933,"근접":11934,"송이":11935,"합치":11936,"동사":11937,"냉전":11938,"이준":11939,"남북한":11940,"나이트":11941,"기상청":11942,"박진":11943,"스터":11944,"국감":11945,"##하루":11946,"의왕":11947,"##어먹":11948,"CN":11949,"곤충":11950,"대동":11951,"사리":11952,"컬렉":11953,"거액":11954,"주어지":11955,"##플레이션":11956,"미션":11957,"점프":11958,"올리브":11959,"##ost":11960,"원단":11961,"무단":11962,"낮춰":11963,"함양":11964,"유관":11965,"CG":11966,"go":11967,"유럽연합":11968,"잠자리":11969,"접한":11970,"회의소":11971,"외관":11972,"텃밭":11973,"인맥":11974,"도매":11975,"할리우드":11976,"멋지":11977,"지름":11978,"강진":11979,"찾아와":11980,"경영학":11981,"기꺼이":11982,"요한":11983,"주상":11984,"경지":11985,"입단":11986,"##커스":11987,"고부":11988,"승계":11989,"금전":11990,"파우":11991,"연고":11992,"수동":11993,"내다봤":11994,"길거리":11995,"주파":11996,"주시":11997,"풍기":11998,"민영화":11999,"흰색":12000,"통지":12001,"##IT":12002,"한껏":12003,"##관광":12004,"불평":12005,"오징어":12006,"궤도":12007,"절정":12008,"동대문":12009,"희미":12010,"스캔":12011,"##북자":12012,"슬로건":12013,"골자":12014,"##ivers":12015,"다스리":12016,"다물":12017,"##그리":12018,"비법":12019,"강국":12020,"윤석":12021,"거래량":12022,"급감":12023,"##hy":12024,"프레스":12025,"요거":12026,"세계관":12027,"DJ":12028,"우상":12029,"생활비":12030,"서문":12031,"CS":12032,"야심":12033,"특례":12034,"##킨다":12035,"건가요":12036,"끓여":12037,"##lic":12038,"벚꽃":12039,"국책":12040,"받아들였":12041,"출처":12042,"민사":12043,"필터":12044,"우량":12045,"불공정":12046,"침착":12047,"마일":12048,"공룡":12049,"원동력":12050,"##대기":12051,"우드":12052,"광역시":12053,"##son":12054,"여배우":12055,"미생":12056,"터뜨렸":12057,"pr":12058,"내뱉":12059,"회식":12060,"납입":12061,"오지":12062,"두려워하":12063,"정점":12064,"강수":12065,"분자":12066,"성매매":12067,"플레이어":12068,"단연":12069,"##ies":12070,"##가족":12071,"오른다":12072,"패밀리":12073,"하버드":12074,"낯설":12075,"경부":12076,"사신":12077,"또래":12078,"정보원":12079,"꺼냈":12080,"사관":12081,"합니까":12082,"경쟁사":12083,"호재":12084,"꼬마":12085,"농지":12086,"유선":12087,"##전력":12088,"차선":12089,"수비수":12090,"가져온":12091,"##민주":12092,"아미":12093,"아세":12094,"파인":12095,"##베리":12096,"분주":12097,"뒤쪽":12098,"보태":12099,"남산":12100,"수반":12101,"설레":12102,"이뤄지는":12103,"고비":12104,"가져올":12105,"벅스":12106,"느껴진다":12107,"포수":12108,"멸망":12109,"공짜":12110,"모스크":12111,"쌓인":12112,"대교":12113,"ed":12114,"은폐":12115,"입대":12116,"주춤":12117,"##부르크":12118,"질투":12119,"전일":12120,"노숙":12121,"##her":12122,"카지노":12123,"기념관":12124,"실버":12125,"약품":12126,"들려왔":12127,"녹차":12128,"오스트리아":12129,"방역":12130,"동점":12131,"빈번":12132,"xx":12133,"적절히":12134,"출퇴근":12135,"차종":12136,"마차":12137,"관제":12138,"은행장":12139,"뉴타운":12140,"##찌개":12141,"데이비드":12142,"참전":12143,"임하":12144,"1981":12145,"후보자":12146,"진행할":12147,"이루어진다":12148,"김창":12149,"회고":12150,"이윽":12151,"성추":12152,"바닷가":12153,"김윤":12154,"##반대":12155,"파급":12156,"햇볕":12157,"과열":12158,"욕설":12159,"보건복":12160,"투구":12161,"##oun":12162,"드래곤":12163,"자비":12164,"일찍이":12165,"세액":12166,"##GA":12167,"무형":12168,"이창":12169,"김희":12170,"수영장":12171,"기저":12172,"표결":12173,"십니다":12174,"알렉산":12175,"민자":12176,"절벽":12177,"저거":12178,"##남도":12179,"대본":12180,"마마":12181,"언스":12182,"나눴":12183,"즈음":12184,"##플렉스":12185,"AS":12186,"##입니다":12187,"열흘":12188,"노스":12189,"호전":12190,"##루미":12191,"본점":12192,"과반":12193,"아리랑":12194,"눈동자":12195,"소품":12196,"종결":12197,"이윽고":12198,"리버":12199,"르네":12200,"동전":12201,"잠자":12202,"장로":12203,"실사":12204,"면서도":12205,"정관":12206,"노년":12207,"##고속도로":12208,"후유증":12209,"##와이":12210,"김문":12211,"이룩":12212,"EBS":12213,"레벨":12214,"산업은행":12215,"##김없이":12216,"Cl":12217,"성추행":12218,"그릴":12219,"어학":12220,"소명":12221,"밀어붙":12222,"두께":12223,"##ical":12224,"주스":12225,"풀려":12226,"박인":12227,"옮김":12228,"##지르":12229,"동요":12230,"약국":12231,"ex":12232,"루이스":12233,"바울":12234,"테이프":12235,"방면":12236,"셀프":12237,"직구":12238,"##에르":12239,"들러":12240,"보궐":12241,"어마":12242,"퀴즈":12243,"##LED":12244,"##동원":12245,"##틀러":12246,"기리":12247,"계파":12248,"푸짐":12249,"가평":12250,"쇼트":12251,"##병원":12252,"수산물":12253,"세탁기":12254,"##질랜드":12255,"붙인":12256,"##으므로":12257,"공산주의":12258,"시동":12259,"의료진":12260,"왼손":12261,"하인":12262,"원숭이":12263,"##외과":12264,"간혹":12265,"암살":12266,"트라":12267,"도무지":12268,"브레이크":12269,"드러낸":12270,"자취":12271,"살아갈":12272,"효능":12273,"잡힌":12274,"니스":12275,"나르":12276,"호조":12277,"싸워":12278,"이놈":12279,"후계":12280,"전승":12281,"이뤄지고":12282,"기념식":12283,"시드":12284,"##천군":12285,"이면":12286,"번영":12287,"려다":12288,"ETF":12289,"여행사":12290,"구실":12291,"그쵸":12292,"서브":12293,"이끈":12294,"##상부":12295,"베테랑":12296,"제작사":12297,"내려다보":12298,"느니":12299,"찬반":12300,"굴러":12301,"헤이":12302,"소이":12303,"김인":12304,"권장":12305,"108":12306,"행렬":12307,"##팡이":12308,"이리저리":12309,"가이드라인":12310,"내려갔":12311,"##범죄":12312,"타이밍":12313,"##ike":12314,"지으며":12315,"과천":12316,"이겼":12317,"에피소드":12318,"수월":12319,"생명체":12320,"해선":12321,"떠오른":12322,"계몽":12323,"스프링":12324,"뉴질랜드":12325,"성원":12326,"순조":12327,"조장":12328,"그라운드":12329,"요동":12330,"##ert":12331,"한라":12332,"왕복":12333,"링크":12334,"옥상":12335,"라든지":12336,"거창":12337,"태극기":12338,"##자유":12339,"##투리":12340,"따돌":12341,"헨리":12342,"다정":12343,"살펴볼":12344,"마음속":12345,"##보험":12346,"이온":12347,"블로":12348,"2030":12349,"석방":12350,"트레이닝":12351,"줄줄이":12352,"무사히":12353,"역학":12354,"남해":12355,"가혹":12356,"185":12357,"하도급":12358,"소고기":12359,"워크숍":12360,"타석":12361,"박용":12362,"##DA":12363,"##훈련":12364,"07":12365,"부의":12366,"거라":12367,"열광":12368,"##소년":12369,"송금":12370,"102":12371,"헤지":12372,"줄어드":12373,"유대인":12374,"걸어서":12375,"일으킬":12376,"증폭":12377,"교도소":12378,"상고":12379,"##권력":12380,"교복":12381,"생전":12382,"측은":12383,"익명":12384,"아마존":12385,"산재":12386,"시멘트":12387,"섞인":12388,"PB":12389,"다크":12390,"달달":12391,"수량":12392,"호박":12393,"조원":12394,"군포":12395,"친일":12396,"과징금":12397,"대검":12398,"표방":12399,"지회":12400,"니깐":12401,"sp":12402,"오토바이":12403,"피지":12404,"퇴임":12405,"세로":12406,"복장":12407,"거둘":12408,"빨래":12409,"ㅠㅠㅠㅠㅠ":12410,"살아나":12411,"만세":12412,"프리미어":12413,"김명":12414,"국사":12415,"##대교":12416,"올라왔":12417,"##사이":12418,"묻혀":12419,"대포":12420,"유령":12421,"진작":12422,"09":12423,"눈높이":12424,"결집":12425,"사위":12426,"내세운":12427,"이용객":12428,"##버려":12429,"신음":12430,"자정":12431,"캐주얼":12432,"진통":12433,"sh":12434,"승자":12435,"조문":12436,"하남":12437,"방북":12438,"무안":12439,"사생활":12440,"성별":12441,"명제":12442,"에버":12443,"학점":12444,"원했":12445,"난방":12446,"오세":12447,"단기간":12448,"야말로":12449,"ES":12450,"살균":12451,"야구장":12452,"강대":12453,"본문":12454,"사옥":12455,"MV":12456,"보답":12457,"시진핑":12458,"달라진다":12459,"양호":12460,"입문":12461,"대성":12462,"허무":12463,"##꿈치":12464,"내륙":12465,"과언":12466,"형평":12467,"골고":12468,"버릇":12469,"##ement":12470,"모였":12471,"정우":12472,"김한":12473,"우뚝":12474,"넘긴":12475,"승마":12476,"유수":12477,"후임":12478,"텐트":12479,"호감":12480,"보건복지부":12481,"목동":12482,"왕비":12483,"섞여":12484,"앞뒤":12485,"어업":12486,"사이드":12487,"야지":12488,"연산":12489,"전두환":12490,"웃기":12491,"삼촌":12492,"노골":12493,"예매":12494,"##본부":12495,"습지":12496,"표적":12497,"상반":12498,"유포":12499,"저조":12500,"저술":12501,"항암":12502,"##출산":12503,"잔액":12504,"강력히":12505,"엄지":12506,"##스틱":12507,"신청서":12508,"저주":12509,"들여다":12510,"##elf":12511,"이대호":12512,"모듈":12513,"LNG":12514,"용납":12515,"남동":12516,"##무실":12517,"올라갈":12518,"##여겨":12519,"베풀":12520,"말기":12521,"양평":12522,"대권":12523,"주지":12524,"시카고":12525,"##어로":12526,"악취":12527,"어째서":12528,"쓸쓸":12529,"외신":12530,"아테":12531,"키울":12532,"특사":12533,"이방":12534,"골퍼":12535,"##테면":12536,"일깨":12537,"세심":12538,"공평":12539,"세속":12540,"출하":12541,"사이클":12542,"##렁이":12543,"##부분":12544,"극도":12545,"포르투갈":12546,"추이":12547,"##기에":12548,"전장":12549,"담합":12550,"전념":12551,"허구":12552,"중진":12553,"차입":12554,"반문":12555,"보훈":12556,"야드":12557,"튀김":12558,"폐업":12559,"##재단":12560,"정장":12561,"서재":12562,"##예술":12563,"오름":12564,"포상":12565,"re":12566,"프란":12567,"##오롱":12568,"폭포":12569,"정형":12570,"라이벌":12571,"1920":12572,"농축":12573,"##ult":12574,"##생산":12575,"이산화":12576,"특색":12577,"간과":12578,"가급":12579,"로선":12580,"##라이트":12581,"##리안":12582,"오마":12583,"마법사":12584,"처해":12585,"수거":12586,"장편":12587,"행해":12588,"동탄":12589,"##지기":12590,"퍼시":12591,"눈여겨":12592,"직관":12593,"알뜰":12594,"오리온":12595,"입자":12596,"헤매":12597,"가미":12598,"다시금":12599,"필립":12600,"SW":12601,"실증":12602,"1978":12603,"생략":12604,"##오리":12605,"피난":12606,"저쪽":12607,"한중":12608,"##베스":12609,"지나갔":12610,"##라미":12611,"저리":12612,"##클럽":12613,"제국주의":12614,"차츰":12615,"##키아":12616,"아무렇":12617,"미인":12618,"계명":12619,"인위":12620,"드러난다":12621,"박병":12622,"장자":12623,"세분":12624,"당국자":12625,"LS":12626,"꼼짝":12627,"해냈":12628,"대책위":12629,"컬렉션":12630,"거침":12631,"유상":12632,"##주택":12633,"맞대결":12634,"끝날":12635,"York":12636,"유저":12637,"360":12638,"벌레":12639,"알아차":12640,"남아공":12641,"명함":12642,"개미":12643,"아담":12644,"구로":12645,"막연":12646,"슈팅":12647,"서초구":12648,"끊임없":12649,"연쇄":12650,"통역":12651,"##월드":12652,"균형발전":12653,"급한":12654,"재임":12655,"장부":12656,"세율":12657,"품격":12658,"PO":12659,"결승전":12660,"만료":12661,"##허가":12662,"색채":12663,"다는데":12664,"후반기":12665,"아모":12666,"버락":12667,"##투스":12668,"공청":12669,"속한다":12670,"##드레":12671,"재앙":12672,"가진다":12673,"웨어":12674,"골고루":12675,"각계":12676,"영수":12677,"목회":12678,"걸린다":12679,"깃발":12680,"들으":12681,"띈다":12682,"이시":12683,"체납":12684,"안드로이드":12685,"개원":12686,"우체":12687,"증자":12688,"놀이터":12689,"125":12690,"식감":12691,"저지르":12692,"직결":12693,"이를테면":12694,"눈썹":12695,"시력":12696,"액세":12697,"태세":12698,"사외":12699,"시련":12700,"제동":12701,"금고":12702,"격리":12703,"본연":12704,"거듭나":12705,"미달":12706,"현존":12707,"대표단":12708,"##센스":12709,"이스트":12710,"청계":12711,"가급적":12712,"##모니":12713,"히어로":12714,"VR":12715,"부적절":12716,"곧장":12717,"##셀로나":12718,"두피":12719,"달빛":12720,"코오롱":12721,"다이아몬드":12722,"토종":12723,"반격":12724,"신원":12725,"풍자":12726,"조현":12727,"바르셀로나":12728,"불린다":12729,"##의사":12730,"돌연":12731,"보건소":12732,"##마리":12733,"판례":12734,"반가":12735,"절박":12736,"베리":12737,"들어설":12738,"영화관":12739,"다녀오":12740,"동조":12741,"일당":12742,"무거":12743,"김밥":12744,"세일즈":12745,"덴마크":12746,"정반대":12747,"탈북자":12748,"로맨스":12749,"묘지":12750,"시시":12751,"심포":12752,"##박이":12753,"##ual":12754,"정례":12755,"플로":12756,"도자기":12757,"접대":12758,"수감":12759,"학사":12760,"빈도":12761,"##위치":12762,"드라이브":12763,"시책":12764,"##날레":12765,"나치":12766,"여력":12767,"도미":12768,"경산":12769,"늘릴":12770,"크레":12771,"늘어놓":12772,"CO":12773,"백작":12774,"시켜서":12775,"챔피언십":12776,"환기":12777,"간다는":12778,"의아":12779,"대림":12780,"여우":12781,"동산":12782,"추방":12783,"창당":12784,"깨달음":12785,"원서":12786,"기부금":12787,"귀중":12788,"조경":12789,"입금":12790,"##크리트":12791,"건설업":12792,"법규":12793,"쿠바":12794,"로워":12795,"##갈비":12796,"줄였":12797,"##벨트":12798,"재판관":12799,"##그래":12800,"##끼리":12801,"낙하":12802,"일본어":12803,"날렸":12804,"공대":12805,"시그":12806,"농수":12807,"창설":12808,"발자국":12809,"고액":12810,"엿보":12811,"무능":12812,"수없이":12813,"테마파크":12814,"##운용":12815,"화랑":12816,"취직":12817,"##방송":12818,"사범":12819,"흘렸":12820,"출발점":12821,"장갑":12822,"실세":12823,"합당":12824,"늘렸":12825,"종속":12826,"##에스":12827,"##거지":12828,"권하":12829,"따름":12830,"비관":12831,"일화":12832,"SC":12833,"곤두":12834,"세븐":12835,"성동":12836,"보트":12837,"당과":12838,"기질":12839,"보단":12840,"재래":12841,"일세":12842,"쫓아":12843,"상하이":12844,"박재":12845,"##런트":12846,"사거리":12847,"연기자":12848,"배부":12849,"취재진":12850,"농단":12851,"##나타":12852,"포지션":12853,"봉쇄":12854,"##orld":12855,"나폴":12856,"by":12857,"늘어":12858,"pro":12859,"한옥":12860,"휘발유":12861,"환급":12862,"사학":12863,"김천":12864,"스케줄":12865,"쾌락":12866,"외고":12867,"키웠":12868,"추리":12869,"애기":12870,"##oy":12871,"콘크리트":12872,"##sh":12873,"관문":12874,"##네스코":12875,"세단":12876,"라틴":12877,"주당":12878,"차이점":12879,"1945":12880,"쿠션":12881,"##화물":12882,"폭락":12883,"전문의":12884,"수요일":12885,"기술자":12886,"손질":12887,"유언":12888,"##처분":12889,"참치":12890,"담화":12891,"그물":12892,"계셨":12893,"수료":12894,"따랐":12895,"단풍":12896,"풍속":12897,"칼로리":12898,"시킴":12899,"적힌":12900,"##국적":12901,"배움":12902,"클레":12903,"LI":12904,"훔쳐":12905,"고령화":12906,"중위":12907,"교향":12908,"클로":12909,"유공":12910,"인선":12911,"틈새":12912,"순례":12913,"##바꿈":12914,"어느덧":12915,"선교사":12916,"##워했":12917,"##총액":12918,"했잖아":12919,"교리":12920,"1975":12921,"선팔":12922,"흘러가":12923,"##자유구역":12924,"미묘":12925,"##가치":12926,"부끄럽":12927,"비준":12928,"훈장":12929,"##조사":12930,"자각":12931,"시가총액":12932,"교직원":12933,"드릴게요":12934,"커서":12935,"터뜨리":12936,"생산자":12937,"Sch":12938,"##야구":12939,"묵묵히":12940,"연재":12941,"정주":12942,"동반자":12943,"공소":12944,"여행객":12945,"맞붙":12946,"##야마":12947,"파스":12948,"신영":12949,"경제자유구역":12950,"##드름":12951,"방사선":12952,"카리스":12953,"미주":12954,"집합":12955,"1973":12956,"등재":12957,"흉내":12958,"쓸데":12959,"면역력":12960,"속초":12961,"숙이":12962,"더욱더":12963,"망명":12964,"나날":12965,"바나나":12966,"카카오톡":12967,"에도":12968,"이장":12969,"법학":12970,"비웃":12971,"다치":12972,"스태프":12973,"여동생":12974,"흔한":12975,"속삭":12976,"일조":12977,"모던":12978,"예년":12979,"든가":12980,"여도":12981,"어쩐":12982,"주입":12983,"상륙":12984,"##━━━━":12985,"이재용":12986,"북방":12987,"찌푸":12988,"하루하루":12989,"김두":12990,"월간":12991,"움직였":12992,"경향신문":12993,"##ology":12994,"##키퍼":12995,"끌어내":12996,"김유":12997,"깊숙이":12998,"동등":12999,"았었":13000,"유네스코":13001,"리바":13002,"내보내":13003,"고품":13004,"조업":13005,"거슬러":13006,"접전":13007,"조선인":13008,"아토":13009,"애쓰":13010,"종족":13011,"세이브":13012,"대우건설":13013,"영동":13014,"115":13015,"초밥":13016,"##수리":13017,"미얀":13018,"LPGA":13019,"틀림없이":13020,"부속":13021,"원격":13022,"시국":13023,"FIFA":13024,"괴로":13025,"##현실":13026,"111":13027,"품종":13028,"편찬":13029,"이승엽":13030,"동성애":13031,"감격":13032,"진이":13033,"184":13034,"골키퍼":13035,"한다며":13036,"지평":13037,"피스":13038,"종편":13039,"타깃":13040,"내버려":13041,"고아":13042,"은은":13043,"울타리":13044,"체조":13045,"식이":13046,"둔다":13047,"구슬":13048,"마음먹":13049,"퍼시픽":13050,"창의력":13051,"그놈":13052,"잣대":13053,"내세웠":13054,"한국전력":13055,"대용":13056,"##언스":13057,"윤곽":13058,"사회학":13059,"회로":13060,"재차":13061,"허벅":13062,"상선":13063,"세입자":13064,"##AT":13065,"부담금":13066,"알맞":13067,"Al":13068,"결여":13069,"조선소":13070,"철폐":13071,"항로":13072,"기습":13073,"##ts":13074,"세르":13075,"슬프":13076,"요란":13077,"잇따르":13078,"농약":13079,"둘레":13080,"펼친다":13081,"반납":13082,"상거래":13083,"킬로미터":13084,"##레이터":13085,"you":13086,"비참":13087,"##어야":13088,"구비":13089,"무궁":13090,"총생산":13091,"보류":13092,"얼어붙":13093,"아유":13094,"쿠데":13095,"공신":13096,"초조":13097,"##면적":13098,"사업가":13099,"450":13100,"정경":13101,"영하":13102,"스파이":13103,"틀린":13104,"##뉴얼":13105,"질의":13106,"겹치":13107,"원안":13108,"배기":13109,"##디스":13110,"벽화":13111,"처형":13112,"임종":13113,"구인":13114,"##공단":13115,"펼친":13116,"엄중":13117,"바늘":13118,"AR":13119,"CP":13120,"자위":13121,"쓸모":13122,"##디움":13123,"증액":13124,"손톱":13125,"도피":13126,"담장":13127,"##데이트":13128,"카리스마":13129,"유무":13130,"싱크":13131,"##ord":13132,"타이거":13133,"돌풍":13134,"찾아갔":13135,"##aw":13136,"원주민":13137,"루수":13138,"조별":13139,"부응":13140,"##러미":13141,"##유예":13142,"고모":13143,"##들인":13144,"망원":13145,"암호":13146,"슬퍼":13147,"겹쳐":13148,"오키":13149,"##레나":13150,"수출입":13151,"당면":13152,"컨셉":13153,"정정":13154,"모리":13155,"##깨비":13156,"##답니다":13157,"자택":13158,"박해":13159,"포스팅":13160,"공안":13161,"수중":13162,"Ex":13163,"##88":13164,"구만":13165,"##시대":13166,"규탄":13167,"해역":13168,"부의장":13169,"피력":13170,"주파수":13171,"유가증권":13172,"시발":13173,"이루어질":13174,"노동력":13175,"강당":13176,"아인":13177,"##십자":13178,"곡물":13179,"##그레":13180,"친숙":13181,"##법인":13182,"두렵":13183,"망치":13184,"복종":13185,"수용자":13186,"외형":13187,"##북도":13188,"할당":13189,"##신저":13190,"##태우":13191,"자치구":13192,"한상":13193,"업데이트":13194,"Univers":13195,"##나와":13196,"번갈":13197,"선착순":13198,"자니":13199,"회색":13200,"삽입":13201,"서산":13202,"봐라":13203,"택하":13204,"##벌레":13205,"종로구":13206,"탈바꿈":13207,"무공":13208,"주둔":13209,"세례":13210,"벨기에":13211,"매콤":13212,"전라":13213,"총무":13214,"시어머니":13215,"AT":13216,"바빠":13217,"항복":13218,"갑니다":13219,"맞물려":13220,"전대":13221,"최장":13222,"책임감":13223,"패권":13224,"쿠데타":13225,"유능":13226,"쏟아졌":13227,"개인전":13228,"가야":13229,"급기야":13230,"CBS":13231,"깨끗이":13232,"##질러":13233,"고로":13234,"##티아":13235,"안목":13236,"계발":13237,"고함":13238,"사표":13239,"장담":13240,"드려":13241,"대꾸":13242,"스티븐":13243,"한은":13244,"저출산":13245,"스노":13246,"103":13247,"무성":13248,"1976":13249,"의거":13250,"매스":13251,"자산운용":13252,"승무원":13253,"로즈":13254,"##다녔":13255,"도정":13256,"터졌":13257,"하와이":13258,"목요일":13259,"##ind":13260,"레몬":13261,"서열":13262,"접할":13263,"순찰":13264,"친한":13265,"왕위":13266,"태백":13267,"사법부":13268,"강성":13269,"적잖":13270,"탁자":13271,"##LL":13272,"마니아":13273,"용의자":13274,"대위":13275,"는커녕":13276,"숭배":13277,"김혜":13278,"지질":13279,"연탄":13280,"셀카":13281,"발족":13282,"유정":13283,"앵커":13284,"프렌":13285,"올라온":13286,"##ollow":13287,"저렇":13288,"##퍼드":13289,"약관":13290,"지휘자":13291,"상급":13292,"치마":13293,"돌아서":13294,"1974":13295,"이나마":13296,"에릭":13297,"보라":13298,"장애물":13299,"코디":13300,"알루미":13301,"Ed":13302,"진열":13303,"변한":13304,"##iss":13305,"샌드위치":13306,"부결":13307,"웹툰":13308,"토리":13309,"복권":13310,"듬뿍":13311,"##시스코":13312,"장시간":13313,"사사":13314,"똑바로":13315,"##마켓":13316,"들려주":13317,"쪼개":13318,"악용":13319,"순회":13320,"한발":13321,"체전":13322,"몸짓":13323,"아비":13324,"##때로":13325,"##ach":13326,"##나리":13327,"##수지":13328,"전한":13329,"제조사":13330,"해준다":13331,"남측":13332,"매뉴얼":13333,"토너":13334,"트레이드":13335,"Le":13336,"존재감":13337,"속옷":13338,"목적지":13339,"결핍":13340,"##투자":13341,"역점":13342,"크라":13343,"연중":13344,"fr":13345,"뿌듯":13346,"군단":13347,"기용":13348,"me":13349,"절로":13350,"급속히":13351,"대역":13352,"육지":13353,"하얗":13354,"상봉":13355,"전시장":13356,"액세서리":13357,"되새":13358,"매직":13359,"깨우":13360,"반하":13361,"엿볼":13362,"판타지":13363,"개그맨":13364,"그제야":13365,"공청회":13366,"다방":13367,"예보":13368,"양질":13369,"##저것":13370,"##AR":13371,"떠돌":13372,"컴백":13373,"이것저것":13374,"심혈":13375,"화사":13376,"합시다":13377,"코코":13378,"어둡":13379,"아부":13380,"기울였":13381,"두드리":13382,"연못":13383,"##어냈":13384,"고분":13385,"얼룩":13386,"여태":13387,"세울":13388,"엎드":13389,"웰빙":13390,"기침":13391,"흘려":13392,"모릅니다":13393,"추후":13394,"비만":13395,"##ance":13396,"동반성":13397,"마진":13398,"머무르":13399,"불출":13400,"불타":13401,"히틀러":13402,"전례":13403,"정류":13404,"클렌징":13405,"서너":13406,"거시":13407,"리우":13408,"with":13409,"하동":13410,"집행부":13411,"##크림":13412,"소방서":13413,"숨겨진":13414,"홀딩":13415,"서두르":13416,"갈래":13417,"수자원":13418,"이브":13419,"급변":13420,"모스크바":13421,"권단":13422,"현수막":13423,"더더":13424,"만끽":13425,"그레":13426,"방대":13427,"원만":13428,"##상스":13429,"회사채":13430,"240":13431,"표상":13432,"타고난":13433,"베스트셀러":13434,"평면":13435,"##스틴":13436,"가드":13437,"터진":13438,"연구회":13439,"광대":13440,"220":13441,"지주회사":13442,"묘한":13443,"조개":13444,"녹지":13445,"연주자":13446,"비누":13447,"판문":13448,"자생":13449,"##차림":13450,"##말라":13451,"공법":13452,"택했":13453,"##짜기":13454,"발산":13455,"부위원장":13456,"힘쓰":13457,"기색":13458,"취업자":13459,"팽창":13460,"펼쳐진":13461,"갯벌":13462,"장남":13463,"피크":13464,"Sc":13465,"당근":13466,"즉석":13467,"임차인":13468,"He":13469,"##박스":13470,"##공원":13471,"잊혀":13472,"허벅지":13473,"수박":13474,"희귀":13475,"##수원":13476,"여수시":13477,"스폰":13478,"특기":13479,"축사":13480,"##뜨려":13481,"쉬워":13482,"어울려":13483,"123":13484,"일컫":13485,"결말":13486,"끌어안":13487,"일쑤":13488,"인텔":13489,"##바탕":13490,"마력":13491,"알루미늄":13492,"루타":13493,"셰프":13494,"경신":13495,"환산":13496,"여간":13497,"전투기":13498,"비엔":13499,"호흡기":13500,"##평균":13501,"회복세":13502,"##곡동":13503,"이제야":13504,"포크":13505,"주공":13506,"둥지":13507,"이세":13508,"##프란":13509,"경마":13510,"지독":13511,"소홀히":13512,"카타르":13513,"생소":13514,"됐으나":13515,"이의":13516,"##이치":13517,"선보여":13518,"돌려주":13519,"적폐":13520,"얘길":13521,"웅진":13522,"치료법":13523,"미혼":13524,"1977":13525,"견고":13526,"공지":13527,"왕성":13528,"al":13529,"전차":13530,"안면":13531,"틀리":13532,"귀농":13533,"떨어뜨리":13534,"다이어터":13535,"MVP":13536,"박경":13537,"뒤덮":13538,"방출":13539,"##나드":13540,"파헤":13541,"주식회사":13542,"후원금":13543,"소진":13544,"강점기":13545,"몰렸":13546,"정제":13547,"나뉜":13548,"피겨":13549,"불렸":13550,"##희정":13551,"쌍둥이":13552,"신전":13553,"치켜":13554,"##연맹":13555,"수표":13556,"태안":13557,"신진":13558,"타락":13559,"사임":13560,"촉발":13561,"거지":13562,"치렀":13563,"내려와":13564,"포용":13565,"항소심":13566,"문학상":13567,"전동":13568,"달려들":13569,"대리인":13570,"##축구":13571,"하필":13572,"상회":13573,"통사":13574,"들어와서":13575,"안도":13576,"박주영":13577,"체온":13578,"구조물":13579,"용감":13580,"##ign":13581,"##거래위":13582,"공립":13583,"공정거래위":13584,"추종":13585,"특급":13586,"전성기":13587,"맛볼":13588,"캄보":13589,"##yst":13590,"밝힐":13591,"##정동":13592,"정계":13593,"찬양":13594,"줘요":13595,"##린다는":13596,"소양":13597,"##학규":13598,"재주":13599,"##티스":13600,"관철":13601,"트래":13602,"르네상스":13603,"##RI":13604,"건넸":13605,"들판":13606,"악영향":13607,"종자":13608,"게스트":13609,"Mar":13610,"서운":13611,"스피커":13612,"상이":13613,"##ome":13614,"1972":13615,"조처":13616,"##숭아":13617,"시아":13618,"수식":13619,"다국적":13620,"정중":13621,"기일":13622,"근간":13623,"의석":13624,"합산":13625,"중얼거렸":13626,"저해":13627,"메카":13628,"##mp":13629,"Man":13630,"##구멍":13631,"돌봄":13632,"함량":13633,"스톱":13634,"성범죄":13635,"개막전":13636,"조영":13637,"수염":13638,"충주":13639,"##기름":13640,"죽였":13641,"헤아":13642,"끼워":13643,"아우르":13644,"매경":13645,"##프레":13646,"울렸":13647,"악수":13648,"존엄":13649,"키운":13650,"##ah":13651,"유재":13652,"##ous":13653,"중원":13654,"##악산":13655,"서귀":13656,"##러기":13657,"순차":13658,"하룻":13659,"은밀":13660,"광교":13661,"벌리":13662,"사치":13663,"용돈":13664,"유희":13665,"소식통":13666,"##튿날":13667,"벌어질":13668,"예견":13669,"##순환":13670,"사채":13671,"입소문":13672,"알레르기":13673,"##어마":13674,"다녀온":13675,"##하니":13676,"끝났":13677,"파고들":13678,"도주":13679,"트러":13680,"##베트":13681,"리콜":13682,"부흥":13683,"물리학":13684,"흩어져":13685,"모셔":13686,"##글라스":13687,"1800":13688,"몬스터":13689,"이튿날":13690,"미얀마":13691,"맥스":13692,"Pl":13693,"마땅히":13694,"신작":13695,"강인":13696,"문턱":13697,"단단히":13698,"팔레스":13699,"##남동":13700,"느리":13701,"한양대":13702,"노르웨이":13703,"아쿠":13704,"염원":13705,"입주자":13706,"효소":13707,"잠수함":13708,"밀가루":13709,"사우디":13710,"스캔들":13711,"가처분":13712,"징후":13713,"##전지":13714,"해낼":13715,"성급":13716,"##퀘어":13717,"##ug":13718,"kt":13719,"시위대":13720,"104":13721,"유병":13722,"제각":13723,"##파리":13724,"견뎌":13725,"강전":13726,"군중":13727,"망가":13728,"사각지대":13729,"더운":13730,"줄지":13731,"손익":13732,"톡톡히":13733,"감행":13734,"규격":13735,"우와":13736,"분화":13737,"김원":13738,"선뜻":13739,"청량":13740,"##슈타인":13741,"부두":13742,"에르":13743,"여관":13744,"CF":13745,"##내기":13746,"거쳐야":13747,"어마어마":13748,"107":13749,"여행자":13750,"##하늘":13751,"지지층":13752,"판문점":13753,"계통":13754,"##지오":13755,"아팠":13756,"제왕":13757,"개구리":13758,"홀딩스":13759,"모처럼":13760,"상습":13761,"슬라이":13762,"스케이팅":13763,"미생물":13764,"##턴트":13765,"##나이티":13766,"남경":13767,"##승환":13768,"보호법":13769,"안보리":13770,"함대":13771,"##퍼니":13772,"기관장":13773,"대법원장":13774,"캄보디아":13775,"코칭":13776,"중고차":13777,"모토":13778,"간첩":13779,"윈도":13780,"##철도":13781,"##매도":13782,"시내버스":13783,"서강":13784,"어스":13785,"때때로":13786,"유서":13787,"유나이티":13788,"친분":13789,"화석":13790,"쓰러지":13791,"서귀포":13792,"tvN":13793,"기점":13794,"도보":13795,"지중":13796,"운임":13797,"179":13798,"존슨":13799,"배급":13800,"벌일":13801,"##필더":13802,"미드필더":13803,"##지도":13804,"온전히":13805,"친밀":13806,"그리움":13807,"나리":13808,"##아나":13809,"대나무":13810,"##내셔널":13811,"반론":13812,"화산":13813,"오른손":13814,"권총":13815,"쉼터":13816,"호의":13817,"활발히":13818,"숨지":13819,"무난":13820,"승려":13821,"Joh":13822,"##여대":13823,"인터내셔널":13824,"늑대":13825,"인플":13826,"아연":13827,"송전":13828,"외래":13829,"세라":13830,"우익":13831,"위헌":13832,"ac":13833,"경희대":13834,"단과":13835,"코끼리":13836,"붙들":13837,"오너":13838,"현미":13839,"말없이":13840,"종가":13841,"바꿔야":13842,"척도":13843,"지쳐":13844,"결선":13845,"1300":13846,"토토":13847,"OLED":13848,"괴롭히":13849,"계획서":13850,"이쁘":13851,"한단":13852,"강북":13853,"초라":13854,"시킨다는":13855,"실크":13856,"속이":13857,"죄인":13858,"사업단":13859,"불명":13860,"밀도":13861,"팔레스타인":13862,"ha":13863,"패스트":13864,"몰려들":13865,"개량":13866,"상단":13867,"칠레":13868,"누이":13869,"평창동":13870,"반장":13871,"우동":13872,"피드":13873,"##기부":13874,"##무니":13875,"목재":13876,"109":13877,"마녀":13878,"권영":13879,"159":13880,"##프란시스코":13881,"경성":13882,"털어":13883,"나흘":13884,"근심":13885,"공표":13886,"반항":13887,"지탱":13888,"힙합":13889,"교보":13890,"위태":13891,"자선":13892,"제대":13893,"변모":13894,"샌프란시스코":13895,"메이커":13896,"세밀":13897,"핀란드":13898,"노려보":13899,"의논":13900,"공명":13901,"불러일으키":13902,"숙명":13903,"##페이":13904,"사촌":13905,"가부":13906,"양대":13907,"내기":13908,"##ish":13909,"김영삼":13910,"카레":13911,"귀환":13912,"임박":13913,"diet":13914,"106":13915,"##티지":13916,"태워":13917,"승차":13918,"단군":13919,"성희":13920,"거둬":13921,"여럿":13922,"디즈":13923,"기력":13924,"각질":13925,"##러웠":13926,"양복":13927,"불어":13928,"싫어":13929,"리처":13930,"183":13931,"University":13932,"개막식":13933,"버블":13934,"##노총":13935,"전작":13936,"##orn":13937,"##ife":13938,"손학규":13939,"당혹":13940,"장애인":13941,"리라는":13942,"달아나":13943,"GB":13944,"하룻밤":13945,"정적":13946,"재심":13947,"인분":13948,"환하":13949,"관련자":13950,"De":13951,"움켜":13952,"돌아섰":13953,"##하이":13954,"아무개":13955,"시뮬":13956,"##게임":13957,"채무자":13958,"시종":13959,"##삼성":13960,"##는데":13961,"AD":13962,"##ick":13963,"채권자":13964,"술부":13965,"고운":13966,"선호도":13967,"일삼":13968,"보상금":13969,"컴퍼니":13970,"보입니다":13971,"여진":13972,"운영비":13973,"통신망":13974,"흡입":13975,"##다나":13976,"쿠키":13977,"이룬다":13978,"볼까요":13979,"이화여대":13980,"총기":13981,"지나간":13982,"보선":13983,"사용량":13984,"유격":13985,"미성":13986,"미련":13987,"##네마":13988,"흡사":13989,"스쳐":13990,"##AE":13991,"스폰서":13992,"충실히":13993,"창간":13994,"##부모":13995,"육수":13996,"1968":13997,"의구":13998,"변론":13999,"어긋나":14000,"스티브":14001,"아크":14002,"대의":14003,"이송":14004,"갈색":14005,"##장구":14006,"저질렀":14007,"북경":14008,"이라든지":14009,"탐험":14010,"##장면":14011,"덩치":14012,"하하하":14013,"당진":14014,"135":14015,"존속":14016,"견지":14017,"인출":14018,"내려앉":14019,"헤어지":14020,"었었":14021,"ㆍ군":14022,"메신저":14023,"로맨틱":14024,"호가":14025,"궁전":14026,"보컬":14027,"##ik":14028,"원회":14029,"##기지":14030,"벽돌":14031,"재촉":14032,"##기사":14033,"올린다":14034,"수정안":14035,"거들":14036,"여행지":14037,"##부상":14038,"##십니까":14039,"##체스터":14040,"찌르":14041,"포위":14042,"휴직":14043,"음향":14044,"관통":14045,"미친다":14046,"침실":14047,"마틴":14048,"담백":14049,"입안":14050,"익스":14051,"비주얼":14052,"##포터":14053,"대국민":14054,"변혁":14055,"##갑니다":14056,"##금속":14057,"환수":14058,"##시피":14059,"입주민":14060,"신주":14061,"최영":14062,"평안":14063,"체육회":14064,"만난다":14065,"인플레이션":14066,"##TS":14067,"다운로드":14068,"내려왔":14069,"##ations":14070,"국제공항":14071,"Ph":14072,"당나라":14073,"쓰러져":14074,"무명":14075,"수익금":14076,"도우미":14077,"소독":14078,"아바":14079,"일차":14080,"서비스업":14081,"파이프":14082,"사대":14083,"사죄":14084,"##비치":14085,"해독":14086,"외로움":14087,"못한다는":14088,"wh":14089,"##슬리":14090,"##가짐":14091,"응하":14092,"묶여":14093,"No":14094,"##노스":14095,"생명력":14096,"지금껏":14097,"여드름":14098,"풍선":14099,"범죄자":14100,"시연":14101,"성장률":14102,"로열":14103,"1600":14104,"매몰":14105,"온전":14106,"꾀하":14107,"연임":14108,"갱신":14109,"해리":14110,"혈당":14111,"맞췄":14112,"어조":14113,"까진":14114,"봉건":14115,"##ire":14116,"송파구":14117,"벌인다":14118,"명명":14119,"정재":14120,"그지":14121,"내몰":14122,"##숨에":14123,"단숨에":14124,"##세자":14125,"평상시":14126,"먹여":14127,"##라비아":14128,"말미암":14129,"치중":14130,"##ner":14131,"벌떡":14132,"##망이":14133,"일회":14134,"다뤄":14135,"수녀":14136,"보스턴":14137,"갖가지":14138,"##무게":14139,"소개서":14140,"브레":14141,"악몽":14142,"건축가":14143,"파손":14144,"소동":14145,"##방식":14146,"차마":14147,"재물":14148,"산타":14149,"구자":14150,"제게":14151,"자릿":14152,"강했":14153,"작물":14154,"이건희":14155,"모닝":14156,"유류":14157,"전한다":14158,"154":14159,"소란":14160,"##들였":14161,"각인":14162,"의구심":14163,"몸무게":14164,"꺼리":14165,"질타":14166,"일보":14167,"시조":14168,"as":14169,"공무":14170,"휘두르":14171,"리라고":14172,"그러다":14173,"개발자":14174,"다급":14175,"##보내":14176,"숙성":14177,"물리치":14178,"체내":14179,"행성":14180,"엔지니어링":14181,"장차":14182,"##tiv":14183,"지방세":14184,"이은":14185,"##11":14186,"수레":14187,"외우":14188,"루트":14189,"필라":14190,"SD":14191,"심플":14192,"은하":14193,"돌아간":14194,"스타디움":14195,"아테네":14196,"##베이스":14197,"추론":14198,"관절염":14199,"착취":14200,"##able":14201,"모비스":14202,"건대":14203,"##마을":14204,"후계자":14205,"대덕":14206,"##te":14207,"거센":14208,"사육":14209,"올스타":14210,"점진":14211,"소변":14212,"심부":14213,"어김없이":14214,"개교":14215,"Ad":14216,"1971":14217,"자수":14218,"들어선다":14219,"##세기":14220,"아랑":14221,"허허":14222,"파행":14223,"안락":14224,"들으며":14225,"단추":14226,"김구":14227,"방황":14228,"공채":14229,"무분":14230,"수만":14231,"결의안":14232,"더더욱":14233,"유화":14234,"II":14235,"익혀":14236,"포천":14237,"##HD":14238,"씁쓸":14239,"##mun":14240,"장원":14241,"미쳐":14242,"PGA":14243,"저번":14244,"실업자":14245,"무진":14246,"끝없이":14247,"##퉁이":14248,"운수":14249,"TP":14250,"강간":14251,"색소":14252,"BC":14253,"##모토":14254,"특보":14255,"털어놨":14256,"동인":14257,"산수":14258,"코엑스":14259,"상응":14260,"지방분":14261,"드라이버":14262,"엄정":14263,"양수":14264,"무너져":14265,"열람":14266,"직위":14267,"공과":14268,"수납":14269,"죽인":14270,"앞섰":14271,"조롱":14272,"##기술":14273,"현대제철":14274,"매달려":14275,"불사":14276,"보호자":14277,"만져":14278,"PE":14279,"##old":14280,"대령":14281,"장년":14282,"살아왔":14283,"프랭":14284,"국도":14285,"이청":14286,"중추":14287,"비박":14288,"기뻐하":14289,"발표회":14290,"불문":14291,"판로":14292,"주교":14293,"프로이트":14294,"##젠테이션":14295,"전세금":14296,"박찬호":14297,"##원지":14298,"망설이":14299,"호황":14300,"배낭":14301,"커진":14302,"액체":14303,"가닥":14304,"김남":14305,"빌라":14306,"성금":14307,"##테르":14308,"막바지":14309,"원한":14310,"승격":14311,"이양":14312,"거미":14313,"코어":14314,"에디":14315,"꼽혔":14316,"김우":14317,"알바":14318,"챌린":14319,"성전":14320,"ELS":14321,"##셔리":14322,"수성구":14323,"전단":14324,"이호":14325,"전라도":14326,"살펴본":14327,"아이러":14328,"요정":14329,"가든":14330,"이라든가":14331,"유공자":14332,"럭셔리":14333,"영산":14334,"##버섯":14335,"마드리":14336,"찰스":14337,"폭격":14338,"추궁":14339,"요트":14340,"분권":14341,"중증":14342,"디테일":14343,"내시":14344,"##BA":14345,"경색":14346,"난감":14347,"이뤄져야":14348,"보낸다":14349,"화요일":14350,"##부진":14351,"Pol":14352,"상큼":14353,"리아":14354,"정현":14355,"##란트":14356,"##패드":14357,"데스":14358,"잉여":14359,"저택":14360,"ㆍ미":14361,"늦추":14362,"태자":14363,"##다르":14364,"구부":14365,"보이스":14366,"양말":14367,"끄덕이":14368,"대마":14369,"북극":14370,"머금":14371,"지부장":14372,"고위급":14373,"하사":14374,"합창단":14375,"친해":14376,"라운":14377,"간다고":14378,"머신":14379,"145":14380,"1948":14381,"과감히":14382,"성모":14383,"골목길":14384,"마드리드":14385,"승률":14386,"임산부":14387,"청각":14388,"황사":14389,"##코드":14390,"낙후":14391,"사고방식":14392,"한시":14393,"맞은":14394,"코믹":14395,"follow":14396,"사당":14397,"검열":14398,"성지":14399,"악순환":14400,"##그네":14401,"공교육":14402,"##라지":14403,"리처드":14404,"편향":14405,"리비아":14406,"김은":14407,"선풍":14408,"몰라요":14409,"230":14410,"상설":14411,"번개":14412,"한몫":14413,"환매":14414,"신곡":14415,"기술원":14416,"맹세":14417,"저감":14418,"본회":14419,"수백만":14420,"아이언":14421,"기수":14422,"##버거":14423,"염소":14424,"차갑":14425,"챙겼":14426,"멀쩡":14427,"모공":14428,"178":14429,"##도르":14430,"불려":14431,"토막":14432,"분식":14433,"진다는":14434,"##즈음":14435,"구석구석":14436,"직영":14437,"씨름":14438,"실수요":14439,"##und":14440,"호스":14441,"는군요":14442,"##ition":14443,"자루":14444,"트리플":14445,"이재명":14446,"칼슘":14447,"##me":14448,"##are":14449,"반값":14450,"##ock":14451,"아이고":14452,"자연스레":14453,"부산대":14454,"맞은편":14455,"경이":14456,"랄까":14457,"모조리":14458,"꼬박":14459,"슈퍼마켓":14460,"사령탑":14461,"고안":14462,"방사능":14463,"원산지":14464,"113":14465,"양면":14466,"욕실":14467,"아세안":14468,"Tr":14469,"교내":14470,"국영":14471,"멍청":14472,"내셔널":14473,"팔려":14474,"어려서":14475,"생강":14476,"장보":14477,"챙긴":14478,"태종":14479,"정가":14480,"공사비":14481,"공허":14482,"##리학":14483,"원소":14484,"외롭":14485,"##con":14486,"동호회":14487,"미모":14488,"두어":14489,"탐욕":14490,"##CO":14491,"좌익":14492,"휘말":14493,"##바겐":14494,"동메달":14495,"##무소":14496,"다룰":14497,"노원":14498,"##ㅋㅋㅋㅋㅋㅋㅋㅋ":14499,"싱싱":14500,"애널":14501,"졸라":14502,"불상":14503,"유모":14504,"자본금":14505,"자구":14506,"압수":14507,"생겨났":14508,"##베이션":14509,"집행유예":14510,"이점":14511,"끌어들이":14512,"157":14513,"데려가":14514,"유로존":14515,"사라질":14516,"사절":14517,"명실":14518,"치를":14519,"들어야":14520,"리터":14521,"##자락":14522,"호칭":14523,"한없이":14524,"와야":14525,"본관":14526,"대열":14527,"앞쪽":14528,"우체국":14529,"연면적":14530,"효자":14531,"융자":14532,"발부":14533,"##크라테스":14534,"모세":14535,"파키스탄":14536,"국유":14537,"엉망":14538,"##데기":14539,"냉면":14540,"무자":14541,"그죠":14542,"두세":14543,"적법":14544,"전처":14545,"도깨비":14546,"전전":14547,"부럽":14548,"항일":14549,"쳐다":14550,"##금융":14551,"의리":14552,"자처":14553,"##int":14554,"짬뽕":14555,"갈아입":14556,"단결":14557,"##브라":14558,"본지":14559,"플라톤":14560,"불고기":14561,"증서":14562,"입상":14563,"##맞이":14564,"마주치":14565,"##사상":14566,"스미스":14567,"Bl":14568,"운동가":14569,"미스트":14570,"체코":14571,"하소연":14572,"은메달":14573,"주니어":14574,"##워졌":14575,"반짝이":14576,"끈질":14577,"어우러진":14578,"딱히":14579,"조속히":14580,"오디오":14581,"탈피":14582,"옵니다":14583,"늘어난다":14584,"John":14585,"##시즘":14586,"콤플렉스":14587,"##ern":14588,"예감":14589,"울진":14590,"무방":14591,"청담":14592,"얼리":14593,"가락":14594,"무당":14595,"연전":14596,"숨졌":14597,"배드":14598,"정류장":14599,"트랜":14600,"내심":14601,"신뢰도":14602,"깨지":14603,"올라와":14604,"GE":14605,"교육비":14606,"##io":14607,"레이더":14608,"교단":14609,"지치":14610,"반감":14611,"비장":14612,"바닷물":14613,"판도":14614,"짜릿":14615,"양양":14616,"출원":14617,"에세이":14618,"조수":14619,"전향":14620,"당당히":14621,"보직":14622,"##불리":14623,"공보":14624,"리오":14625,"승강":14626,"행적":14627,"르노삼성":14628,"##ech":14629,"##fic":14630,"스러울":14631,"이강":14632,"거머":14633,"법상":14634,"은근히":14635,"##습기":14636,"내전":14637,"##임자":14638,"충만":14639,"찬사":14640,"##자재":14641,"폭스바겐":14642,"와의":14643,"광저우":14644,"영예":14645,"두꺼운":14646,"##미안":14647,"하드웨어":14648,"복지부":14649,"클리닉":14650,"복숭아":14651,"전경련":14652,"방송인":14653,"요가":14654,"아이콘":14655,"일간지":14656,"침수":14657,"민법":14658,"국무부":14659,"위계":14660,"필사":14661,"##주군":14662,"탄산":14663,"구형":14664,"향토":14665,"떠올렸":14666,"##그러":14667,"##체어":14668,"볼트":14669,"##인물":14670,"처하":14671,"서남":14672,"무더위":14673,"일감":14674,"병실":14675,"의병":14676,"스퀘어":14677,"휴게소":14678,"는데도":14679,"사계":14680,"담담":14681,"즐겼":14682,"극한":14683,"기쁜":14684,"1900":14685,"지녔":14686,"자릿수":14687,"동거":14688,"선글라스":14689,"영남대":14690,"##22":14691,"루스":14692,"155":14693,"자연히":14694,"##스트리트":14695,"휠체어":14696,"VIP":14697,"해병대":14698,"최재":14699,"최정":14700,"경직":14701,"커져":14702,"##tit":14703,"차명":14704,"빅토":14705,"슬쩍":14706,"비아":14707,"힐러리":14708,"he":14709,"365":14710,"레알":14711,"외환은행":14712,"세계인":14713,"매사":14714,"굶주":14715,"규율":14716,"##ystem":14717,"JT":14718,"라고요":14719,"속내":14720,"117":14721,"무이":14722,"속해":14723,"춤추":14724,"서인":14725,"자락":14726,"제갈":14727,"정사":14728,"구직자":14729,"산불":14730,"인디언":14731,"##레스테":14732,"##안전":14733,"도망치":14734,"마흔":14735,"쓰인":14736,"예술인":14737,"성산":14738,"물자":14739,"커리":14740,"워치":14741,"니콜":14742,"안중":14743,"로드맵":14744,"냉각":14745,"발동":14746,"독주":14747,"김관":14748,"##ris":14749,"요시":14750,"DMZ":14751,"술잔":14752,"어땠":14753,"까마":14754,"수건":14755,"##나항공":14756,"바이올린":14757,"싸울":14758,"비방":14759,"당위":14760,"가로수":14761,"될까요":14762,"##tr":14763,"심야":14764,"대내":14765,"반경":14766,"빼돌":14767,"##너무":14768,"##연구원":14769,"조이":14770,"외무":14771,"까다로운":14772,"Soc":14773,"약식":14774,"아시아나항공":14775,"영사":14776,"나타낸다":14777,"위촉":14778,"직속":14779,"무더기":14780,"가늘":14781,"추출물":14782,"KE":14783,"김학":14784,"국기":14785,"##미디어":14786,"통째":14787,"건만":14788,"하여튼":14789,"무분별":14790,"거장":14791,"부가가치":14792,"영종":14793,"후문":14794,"##상수":14795,"주어진다":14796,"일류":14797,"급진":14798,"동학":14799,"오션":14800,"자민":14801,"외교관":14802,"답사":14803,"동명":14804,"대관":14805,"김세":14806,"설령":14807,"##ide":14808,"어용":14809,"꼴찌":14810,"128":14811,"막말":14812,"휘둘":14813,"##암동":14814,"일어난다":14815,"유산균":14816,"내려온":14817,"뮤지션":14818,"전망대":14819,"꼼수":14820,"바라볼":14821,"like":14822,"기다릴":14823,"이규":14824,"물러서":14825,"내린다":14826,"지구촌":14827,"3500":14828,"체면":14829,"뽐내":14830,"디즈니":14831,"젊음":14832,"의료비":14833,"잔류":14834,"1400":14835,"골짜기":14836,"달러화":14837,"불쑥":14838,"토목":14839,"이노베이션":14840,"출품":14841,"아토피":14842,"불거진":14843,"출혈":14844,"공수":14845,"유태":14846,"##갱이":14847,"##OR":14848,"장안":14849,"천황":14850,"무작정":14851,"바우":14852,"바리":14853,"MD":14854,"지날":14855,"넥슨":14856,"잔잔":14857,"무서워":14858,"연정":14859,"나아갈":14860,"태아":14861,"올라간":14862,"삼가":14863,"##of":14864,"성명서":14865,"##커트":14866,"고른":14867,"누비":14868,"대의원":14869,"가명":14870,"니트":14871,"우파":14872,"전화기":14873,"퇴직금":14874,"멘토링":14875,"1969":14876,"##누스":14877,"들려오":14878,"##레스테롤":14879,"거느리":14880,"관직":14881,"NG":14882,"##나갔":14883,"그칠":14884,"도울":14885,"자손":14886,"청도":14887,"기동":14888,"기저귀":14889,"주범":14890,"##통일":14891,"내비쳤":14892,"월스트리트":14893,"한파":14894,"무실":14895,"독성":14896,"보성":14897,"약사":14898,"콜레스테롤":14899,"팔로우":14900,"이산가족":14901,"##레마":14902,"리바운드":14903,"미쓰":14904,"##산성":14905,"영위":14906,"##고래":14907,"균열":14908,"진흙":14909,"##무진":14910,"치부":14911,"망각":14912,"섬기":14913,"신촌":14914,"##AP":14915,"ㆍ정":14916,"안무":14917,"김효":14918,"구급":14919,"취득세":14920,"##십시오":14921,"1967":14922,"위쪽":14923,"포켓":14924,"용인시":14925,"조종사":14926,"남대":14927,"속출":14928,"031":14929,"Intern":14930,"김미":14931,"비우":14932,"121":14933,"PP":14934,"이질":14935,"생체":14936,"서부터":14937,"갈망":14938,"거쳤":14939,"불허":14940,"잠겨":14941,"MBA":14942,"신안":14943,"안티":14944,"##SI":14945,"165":14946,"미지수":14947,"원심":14948,"##AC":14949,"신명":14950,"##ey":14951,"멜로":14952,"대면":14953,"혹독":14954,"모여서":14955,"다중":14956,"반가운":14957,"음주운전":14958,"상여":14959,"##마르":14960,"거래일":14961,"여타":14962,"UAE":14963,"혼돈":14964,"포즈":14965,"급급":14966,"en":14967,"일리":14968,"흉기":14969,"스틱":14970,"대졸":14971,"독립성":14972,"슬림":14973,"정연":14974,"승소":14975,"곱창":14976,"군청":14977,"원점":14978,"쌍방":14979,"사지":14980,"대전시":14981,"동물원":14982,"##백화점":14983,"부딪치":14984,"살린":14985,"미시":14986,"강판":14987,"성희롱":14988,"오라":14989,"이국":14990,"집약":14991,"햄버거":14992,"##리시":14993,"계집":14994,"사춘":14995,"Wh":14996,"쇠퇴":14997,"아리스":14998,"도망가":14999,"나물":15000,"부담감":15001,"스티커":15002,"사역":15003,"미숙":15004,"배양":15005,"살릴":15006,"경기력":15007,"##프스":15008,"맛나":15009,"관리비":15010,"입가":15011,"조아":15012,"##마킹":15013,"입히":15014,"조선업":15015,"영천":15016,"자랐":15017,"아깝":15018,"##덱스":15019,"삼성증권":15020,"베어":15021,"수퍼":15022,"##뜨릴":15023,"지만은":15024,"달려갔":15025,"하긴":15026,"##루스":15027,"##라이언":15028,"차등":15029,"벤치마킹":15030,"음란":15031,"나폴레":15032,"당도":15033,"거스":15034,"베개":15035,"본토":15036,"덧붙여":15037,"스코어":15038,"푸틴":15039,"호두":15040,"사탕":15041,"환불":15042,"다니엘":15043,"에센스":15044,"175":15045,"논하":15046,"메커":15047,"투성이":15048,"NS":15049,"Gr":15050,"아메리":15051,"##올라":15052,"쳐들":15053,"127":15054,"사주":15055,"팔렸":15056,"사무국":15057,"버림":15058,"관리법":15059,"##막이":15060,"PM":15061,"판소리":15062,"잡아먹":15063,"복판":15064,"줄게":15065,"더군다나":15066,"변환":15067,"배워야":15068,"최경환":15069,"빛깔":15070,"퍼부":15071,"가전제품":15072,"자연환경":15073,"뭉치":15074,"언뜻":15075,"경청":15076,"그친":15077,"상법":15078,"우라":15079,"각서":15080,"122":15081,"116":15082,"간절히":15083,"엘리자":15084,"첼시":15085,"중남":15086,"재검":15087,"무너졌":15088,"##페이스":15089,"중장":15090,"다가온":15091,"볼륨":15092,"어민":15093,"착하":15094,"커튼":15095,"셔도":15096,"충무":15097,"마누":15098,"조계":15099,"해내":15100,"팀원":15101,"금기":15102,"미수":15103,"샘플":15104,"배임":15105,"아래쪽":15106,"못한다면":15107,"##살렘":15108,"담아":15109,"당권":15110,"잡혔":15111,"물려받":15112,"대란":15113,"지기":15114,"비료":15115,"쫄깃":15116,"한심":15117,"견학":15118,"실종자":15119,"직책":15120,"##루엔":15121,"기밀":15122,"##교도":15123,"##루살렘":15124,"소사":15125,"아이디":15126,"요지":15127,"찬스":15128,"도루":15129,"콩나물":15130,"만연":15131,"평정":15132,"흔하":15133,"턱없이":15134,"아우디":15135,"출고":15136,"1965":15137,"제지":15138,"월등":15139,"감세":15140,"팬츠":15141,"간행":15142,"전집":15143,"메커니즘":15144,"게으":15145,"Comp":15146,"##퇴직":15147,"임대차":15148,"##현동":15149,"연신":15150,"내줬":15151,"부추기":15152,"성품":15153,"나와야":15154,"어기":15155,"영도":15156,"##itt":15157,"조합장":15158,"급성장":15159,"테라":15160,"EC":15161,"웨스트":15162,"쓰인다":15163,"올라섰":15164,"자작":15165,"경제성장":15166,"복선":15167,"탁구":15168,"재화":15169,"가두":15170,"거룩":15171,"##ank":15172,"##ove":15173,"봅시다":15174,"좁혀":15175,"너무너무":15176,"맥도":15177,"신생아":15178,"김부":15179,"장대":15180,"철새":15181,"맨체스터":15182,"더러운":15183,"알아볼":15184,"놀랄":15185,"뒤섞":15186,"루터":15187,"화법":15188,"황교":15189,"매달리":15190,"풍토":15191,"##anc":15192,"나뉜다":15193,"불씨":15194,"어우러져":15195,"송영":15196,"미역":15197,"두근":15198,"컨설턴트":15199,"고뇌":15200,"달라붙":15201,"자책점":15202,"118":15203,"둥근":15204,"이한":15205,"##가정":15206,"레시피":15207,"의성":15208,"구한":15209,"종북":15210,"플래시":15211,"바랐":15212,"활동가":15213,"깨어나":15214,"바삭":15215,"이어받":15216,"니체":15217,"##텍스":15218,"싸웠":15219,"##부림":15220,"후쿠시마":15221,"이이":15222,"인양":15223,"화성시":15224,"우러":15225,"형법":15226,"불화":15227,"아모레":15228,"막막":15229,"극우":15230,"아쉬웠":15231,"드럼":15232,"181":15233,"서해안":15234,"dog":15235,"최진":15236,"성화":15237,"해외여행":15238,"고루":15239,"방탄":15240,"아키":15241,"누렸":15242,"줄기세포":15243,"당첨자":15244,"선가":15245,"힘차":15246,"꼭대기":15247,"닥치":15248,"카트":15249,"리치":15250,"뒤흔":15251,"밤중":15252,"원두":15253,"암기":15254,"나폴레옹":15255,"사용자":15256,"##쿠버":15257,"제물":15258,"이효":15259,"자의":15260,"해물":15261,"버드":15262,"직종":15263,"박세":15264,"##은색":15265,"영양소":15266,"죽일":15267,"##erv":15268,"신청자":15269,"석면":15270,"와이파이":15271,"낙하산":15272,"내실":15273,"##일드":15274,"##왜란":15275,"고마운":15276,"ㆍ이":15277,"변질":15278,"심신":15279,"가칭":15280,"멸종":15281,"퇴장":15282,"애널리스트":15283,"마나":15284,"감리":15285,"##릴라":15286,"바비":15287,"반포":15288,"였음":15289,"다우":15290,"임진왜란":15291,"정대":15292,"##틀랜드":15293,"랜드마크":15294,"그러면은":15295,"ad":15296,"##iew":15297,"북적":15298,"##타임":15299,"오키나와":15300,"가위":15301,"추대":15302,"부류":15303,"나옵니다":15304,"사춘기":15305,"의례":15306,"화질":15307,"다자":15308,"리베":15309,"거니와":15310,"스릴":15311,"182":15312,"위함":15313,"강기":15314,"망하":15315,"위스키":15316,"파울":15317,"후지":15318,"껴안":15319,"해저":15320,"습격":15321,"포진":15322,"막힌":15323,"전염병":15324,"베드":15325,"촉각":15326,"건너편":15327,"오스":15328,"특산물":15329,"서거":15330,"브로드":15331,"야단":15332,"이관":15333,"번식":15334,"아니요":15335,"메우":15336,"소각":15337,"##시스트":15338,"장타":15339,"트러블":15340,"상부":15341,"기획사":15342,"나열":15343,"족발":15344,"물러났":15345,"기류":15346,"정준":15347,"##이나":15348,"##ㅋㅋㅋ":15349,"산맥":15350,"동두":15351,"양지":15352,"156":15353,"우두":15354,"증강":15355,"첨부":15356,"미녀":15357,"고흥":15358,"고충":15359,"1963":15360,"치가":15361,"어이없":15362,"남도":15363,"self":15364,"해남":15365,"압구":15366,"가액":15367,"교제":15368,"모티브":15369,"잡스":15370,"스탈":15371,"로스쿨":15372,"동남아시아":15373,"저금리":15374,"평판":15375,"여주인":15376,"미용실":15377,"133":15378,"리어":15379,"신데":15380,"기이":15381,"실수요자":15382,"부끄러운":15383,"사슴":15384,"방수":15385,"알아내":15386,"퇴원":15387,"총독":15388,"##슬림":15389,"빅뱅":15390,"성기":15391,"종신":15392,"우승자":15393,"쓸데없":15394,"배열":15395,"영덕":15396,"강박":15397,"144":15398,"관용":15399,"김문수":15400,"가결":15401,"속상":15402,"미르":15403,"니즈":15404,"my":15405,"마카":15406,"추기":15407,"부녀":15408,"##eb":15409,"177":15410,"수돗":15411,"예루살렘":15412,"은유":15413,"번거":15414,"얽힌":15415,"2022":15416,"도산":15417,"빗물":15418,"잊어버리":15419,"교포":15420,"새겨진":15421,"쇼크":15422,"터전":15423,"교묘":15424,"##MS":15425,"부딪히":15426,"최태":15427,"##ier":15428,"상국":15429,"네네네":15430,"하마":15431,"끓이":15432,"필지":15433,"화순":15434,"instaf":15435,"관례":15436,"의존도":15437,"따른다":15438,"할게요":15439,"순진":15440,"장만":15441,"오찬":15442,"성대":15443,"퍼스트":15444,"##che":15445,"##팩트":15446,"홈경기":15447,"목걸이":15448,"und":15449,"750":15450,"음음":15451,"민국":15452,"의기":15453,"찔러":15454,"모은다":15455,"토니":15456,"마음가짐":15457,"구했":15458,"황태":15459,"경합":15460,"휴업":15461,"사뭇":15462,"##모비스":15463,"다카":15464,"팔꿈치":15465,"##서야":15466,"부시장":15467,"##광역":15468,"공황":15469,"##세우":15470,"넘어갔":15471,"볶음밥":15472,"DS":15473,"다발":15474,"기다려야":15475,"낱말":15476,"경복":15477,"삼척":15478,"중상":15479,"다고요":15480,"말려":15481,"부쩍":15482,"몰린":15483,"싸늘":15484,"쓰다듬":15485,"국공":15486,"손잡이":15487,"따를":15488,"태조":15489,"모터쇼":15490,"유리창":15491,"재질":15492,"광물":15493,"열등":15494,"맞벌이":15495,"향유":15496,"교토":15497,"화백":15498,"Br":15499,"무슬림":15500,"냄비":15501,"세인트":15502,"210":15503,"그립":15504,"아이러니":15505,"레지":15506,"비위":15507,"속담":15508,"가솔":15509,"사나":15510,"유흥":15511,"헝가리":15512,"비켜":15513,"현대모비스":15514,"##ton":15515,"가나":15516,"꿰뚫":15517,"유역":15518,"유방암":15519,"야마":15520,"품위":15521,"정액":15522,"겨루":15523,"온난":15524,"평형":15525,"##rans":15526,"280":15527,"민관":15528,"이공":15529,"반입":15530,"월평균":15531,"1962":15532,"장모":15533,"암흑":15534,"성벽":15535,"소생":15536,"평가전":15537,"연구실":15538,"높인":15539,"조인":15540,"흘러나오":15541,"한약":15542,"##les":15543,"더럽":15544,"원본":15545,"주된":15546,"세워진":15547,"표절":15548,"이계":15549,"콜롬":15550,"이바지":15551,"롯데월드":15552,"안전사고":15553,"애착":15554,"그쳐":15555,"알릴":15556,"수군":15557,"대표자":15558,"무너진":15559,"동그":15560,"빵집":15561,"##트랙":15562,"파나":15563,"차근":15564,"다가올":15565,"노래방":15566,"알선":15567,"인방":15568,"영수증":15569,"테라스":15570,"지하수":15571,"알아듣":15572,"##ash":15573,"농경":15574,"방화":15575,"스테이트":15576,"과외":15577,"##사랑":15578,"어쩌다":15579,"옥션":15580,"##무라":15581,"이민자":15582,"카테":15583,"면치":15584,"외과":15585,"뾰족":15586,"124":15587,"핀테크":15588,"천막":15589,"모른다고":15590,"시뮬레이션":15591,"ㆍ고":15592,"벼랑":15593,"황교안":15594,"자산관리":15595,"약탈":15596,"전통문화":15597,"논증":15598,"대승":15599,"증식":15600,"스페이스":15601,"일탈":15602,"진수":15603,"요컨대":15604,"제작비":15605,"김석":15606,"궁궐":15607,"반기문":15608,"챌린지":15609,"instafood":15610,"칸트":15611,"##meric":15612,"자초":15613,"BBC":15614,"양사":15615,"느라고":15616,"왕후":15617,"테크놀":15618,"##김치":15619,"김홍":15620,"생사":15621,"두터":15622,"데이터베이스":15623,"대명사":15624,"연준":15625,"위례":15626,"능가":15627,"헤르":15628,"탄도":15629,"136":15630,"열중":15631,"순방":15632,"티베트":15633,"과학부":15634,"집사":15635,"CNN":15636,"매끄":15637,"아이패드":15638,"브로커":15639,"국문":15640,"낙지":15641,"잔소리":15642,"여객선":15643,"TE":15644,"누락":15645,"장어":15646,"오리지":15647,"수양":15648,"화끈":15649,"박모":15650,"돌이켜":15651,"서대문":15652,"연행":15653,"산다는":15654,"성직자":15655,"손색":15656,"126":15657,"바스":15658,"불출마":15659,"사우디아":15660,"132":15661,"쓰였":15662,"##수산부":15663,"도왔":15664,"영농":15665,"연차":15666,"진하":15667,"원치":15668,"##ph":15669,"##아먹":15670,"센트럴":15671,"서한":15672,"세안":15673,"천문학":15674,"세션":15675,"대타":15676,"마포구":15677,"##터스":15678,"어떤가":15679,"시합":15680,"메이드":15681,"투신":15682,"식욕":15683,"처우":15684,"아껴":15685,"천명":15686,"그려진":15687,"현대건설":15688,"다문화":15689,"접어":15690,"눈부신":15691,"고추장":15692,"굳건":15693,"##지엄":15694,"##enc":15695,"토마스":15696,"죄책":15697,"터무니":15698,"긴축":15699,"박기":15700,"회차":15701,"로션":15702,"아메리칸":15703,"광해":15704,"풍미":15705,"봉지":15706,"JTBC":15707,"##납니다":15708,"심포지엄":15709,"밸런스":15710,"##메이":15711,"멸치":15712,"폐해":15713,"태연":15714,"##iti":15715,"휴전":15716,"울릉도":15717,"호위":15718,"스트레":15719,"SOC":15720,"중앙일보":15721,"어지럽":15722,"리포트":15723,"137":15724,"##ann":15725,"##그마":15726,"증명서":15727,"한결같이":15728,"그랑":15729,"##내려":15730,"빌미":15731,"줄거리":15732,"마취":15733,"##ink":15734,"IBM":15735,"달인":15736,"상쾌":15737,"뷔페":15738,"동래":15739,"##ive":15740,"IOC":15741,"박태환":15742,"330":15743,"받들":15744,"전보":15745,"무신":15746,"후세":15747,"다원":15748,"151":15749,"수축":15750,"차체":15751,"형벌":15752,"##승부":15753,"무색":15754,"##루엔자":15755,"저것":15756,"EP":15757,"천정":15758,"139":15759,"##버렸":15760,"비빔밥":15761,"실책":15762,"##수아":15763,"정돈":15764,"쫓기":15765,"평온":15766,"정해져":15767,"비평가":15768,"맡겼":15769,"시군":15770,"1100":15771,"메트로":15772,"소방관":15773,"박준":15774,"##인다는":15775,"계약금":15776,"국화":15777,"기념일":15778,"##ite":15779,"270":15780,"유배":15781,"##ree":15782,"##케이":15783,"구르":15784,"참배":15785,"##오카":15786,"포항시":15787,"Res":15788,"##아보":15789,"단련":15790,"쏘나타":15791,"KD":15792,"라떼":15793,"안희정":15794,"배타":15795,"혼잡":15796,"##IN":15797,"착오":15798,"성적표":15799,"다산":15800,"숙련":15801,"머뭇":15802,"건너가":15803,"허술":15804,"일어섰":15805,"실무자":15806,"이긴":15807,"까스":15808,"무림":15809,"처사":15810,"이희":15811,"인플루엔자":15812,"워커":15813,"글쎄요":15814,"un":15815,"이뤄져":15816,"건드리":15817,"그랜":15818,"소인":15819,"고질":15820,"파이낸":15821,"달해":15822,"##마음":15823,"도어":15824,"부르주":15825,"##베리아":15826,"양도세":15827,"포도주":15828,"불복":15829,"숱한":15830,"메뉴판":15831,"무모":15832,"젤리":15833,"영조":15834,"청바지":15835,"노란색":15836,"관악":15837,"구미시":15838,"손발":15839,"지킴":15840,"해발":15841,"건데요":15842,"관상":15843,"추기경":15844,"씨티":15845,"청결":15846,"성도":15847,"효용":15848,"숟가락":15849,"화분":15850,"재일":15851,"SO":15852,"따라잡":15853,"코카":15854,"벌어들":15855,"앞바다":15856,"실례":15857,"대지진":15858,"보너스":15859,"##래요":15860,"심경":15861,"지청":15862,"용사":15863,"편히":15864,"전광":15865,"##ma":15866,"최상위":15867,"다다":15868,"저게":15869,"응급실":15870,"고마움":15871,"##AA":15872,"막론":15873,"되돌려":15874,"찬란":15875,"케이블카":15876,"사우디아라비아":15877,"##제이":15878,"##어보":15879,"##워진":15880,"칼리":15881,"구운":15882,"면도":15883,"드나들":15884,"승패":15885,"구독":15886,"근까":15887,"밀어내":15888,"홍명":15889,"모여들":15890,"심문":15891,"Ac":15892,"고영":15893,"끼어들":15894,"학창":15895,"인해서":15896,"계약직":15897,"어딜":15898,"피츠":15899,"아날":15900,"하우":15901,"양현":15902,"엇갈리":15903,"##ID":15904,"##기금":15905,"폭우":15906,"등극":15907,"중앙당":15908,"옷차림":15909,"로우":15910,"World":15911,"벽면":15912,"여하":15913,"소치":15914,"명나라":15915,"##ater":15916,"신형":15917,"하차":15918,"오월":15919,"쪼끔":15920,"난관":15921,"끌려가":15922,"박혀":15923,"피아니스트":15924,"청자":15925,"구동":15926,"구애":15927,"수돗물":15928,"으실":15929,"매혹":15930,"행정관":15931,"청취자":15932,"보일러":15933,"나타낸":15934,"몸집":15935,"윤기":15936,"참신":15937,"가파른":15938,"노자":15939,"자행":15940,"들으면서":15941,"요리사":15942,"왔으며":15943,"외침":15944,"짓밟":15945,"간소":15946,"교구":15947,"##실히":15948,"회귀":15949,"갖춰야":15950,"위배":15951,"넘어갈":15952,"##니스탄":15953,"더해":15954,"버려야":15955,"행방":15956,"항아리":15957,"들린다":15958,"레스":15959,"퍼졌":15960,"여중":15961,"요하":15962,"편집자":15963,"면밀히":15964,"공용":15965,"솟아":15966,"잔여":15967,"소소":15968,"심했":15969,"독감":15970,"유착":15971,"말끔":15972,"만장":15973,"##더기":15974,"릴레이":15975,"날카롭":15976,"선체":15977,"모의고사":15978,"대공":15979,"##맞춤":15980,"어필":15981,"포격":15982,"투자가":15983,"여운":15984,"집니다":15985,"##캐피탈":15986,"획일":15987,"ar":15988,"서강대":15989,"실마리":15990,"엔트리":15991,"해양수산부":15992,"##⠀⠀⠀⠀⠀⠀⠀⠀":15993,"강령":15994,"제작자":15995,"어쩐지":15996,"터득":15997,"난이도":15998,"153":15999,"테일":16000,"돌려받":16001,"보행자":16002,"화답":16003,"장외":16004,"취업률":16005,"불거지":16006,"통학":16007,"웅장":16008,"##ath":16009,"봉화":16010,"청하":16011,"기종":16012,"밀레":16013,"경량":16014,"편익":16015,"동백":16016,"맞선":16017,"병합":16018,"따라오":16019,"##act":16020,"한성":16021,"내성":16022,"강철":16023,"야스":16024,"상수도":16025,"BB":16026,"몰라서":16027,"제때":16028,"초교":16029,"나뭇가지":16030,"실속":16031,"포화":16032,"주워":16033,"만회":16034,"1966":16035,"완주":16036,"149":16037,"어버":16038,"도사":16039,"양재":16040,"태그":16041,"귀하":16042,"틀렸":16043,"AC":16044,"지휘관":16045,"##행사":16046,"it":16047,"해산물":16048,"##키스":16049,"줄어든다":16050,"청소기":16051,"산책로":16052,"러블":16053,"오승환":16054,"다가와":16055,"학파":16056,"##ake":16057,"경제학자":16058,"생겨난":16059,"마오":16060,"흐트":16061,"뒷모습":16062,"즉위":16063,"여호":16064,"GT":16065,"려니":16066,"지중해":16067,"KS":16068,"중남미":16069,"따스":16070,"##전기":16071,"센티":16072,"##넘기":16073,"식초":16074,"현물":16075,"공범":16076,"주임":16077,"실기":16078,"영성":16079,"##르도":16080,"때론":16081,"세관":16082,"가다듬":16083,"초연":16084,"경제력":16085,"택한":16086,"변증":16087,"고법":16088,"조광":16089,"##듀서":16090,"이선":16091,"수사관":16092,"박희":16093,"구매자":16094,"양손":16095,"두드러지":16096,"치닫":16097,"몸부림":16098,"담겼":16099,"WTO":16100,"강서구":16101,"순종":16102,"164":16103,"점거":16104,"굴복":16105,"소름":16106,"프로듀서":16107,"정수기":16108,"놓이":16109,"인사말":16110,"래요":16111,"가솔린":16112,"됩니까":16113,"원룸":16114,"민망":16115,"편법":16116,"지저":16117,"비벼":16118,"확진":16119,"##사태":16120,"어찌나":16121,"Americ":16122,"울림":16123,"MP":16124,"이따금":16125,"나지":16126,"##rid":16127,"1940":16128,"뱅킹":16129,"1961":16130,"파출":16131,"홍익":16132,"걸치":16133,"살포":16134,"KAIST":16135,"##르타":16136,"섭섭":16137,"매듭":16138,"후보지":16139,"분홍":16140,"매화":16141,"레닌":16142,"연희":16143,"멈췄":16144,"드로":16145,"이문":16146,"선구":16147,"집요":16148,"함성":16149,"중력":16150,"##서스":16151,"터질":16152,"다변":16153,"퇴행":16154,"금산":16155,"아랑곳":16156,"명백히":16157,"묵직":16158,"##케인":16159,"커진다":16160,"일주":16161,"고소득":16162,"사라진다":16163,"윤상":16164,"척하":16165,"이랬":16166,"문신":16167,"궁중":16168,"올라간다":16169,"적십자":16170,"간결":16171,"하단":16172,"통틀":16173,"들어온다":16174,"ㅇㅇ":16175,"단언":16176,"덩달":16177,"성수기":16178,"칼국수":16179,"##천동":16180,"320":16181,"펜션":16182,"돌파구":16183,"ㆍ일":16184,"끝낸":16185,"일축":16186,"판촉":16187,"재판장":16188,"자이언":16189,"엄두":16190,"야만":16191,"IBK":16192,"서경":16193,"강정호":16194,"AM":16195,"##버린":16196,"고령자":16197,"에티":16198,"##영수":16199,"사고력":16200,"딜레마":16201,"됐었":16202,"자백":16203,"기준치":16204,"아울렛":16205,"범하":16206,"찬물":16207,"멀리서":16208,"260":16209,"박동":16210,"쟁이":16211,"종양":16212,"초안":16213,"1964":16214,"다져":16215,"Co":16216,"넘어지":16217,"패딩":16218,"반대편":16219,"침범":16220,"페널":16221,"중량":16222,"공권력":16223,"출세":16224,"##클리":16225,"##HO":16226,"첫해":16227,"뭉쳐":16228,"구직":16229,"선입":16230,"형국":16231,"신속히":16232,"조사단":16233,"교량":16234,"##정식":16235,"농심":16236,"##form":16237,"책자":16238,"미약":16239,"브래":16240,"뒤편":16241,"유라":16242,"기만":16243,"연장선":16244,"페리":16245,"혹시나":16246,"현대캐피탈":16247,"경상도":16248,"불법행위":16249,"제철소":16250,"##ower":16251,"동대":16252,"미야":16253,"세정":16254,"빠짐":16255,"구약":16256,"##어낸":16257,"##차근":16258,"무실점":16259,"입장권":16260,"연하":16261,"들어도":16262,"소시":16263,"##웃음":16264,"성황":16265,"산모":16266,"##시티":16267,"제반":16268,"주선":16269,"뭘까":16270,"건국대":16271,"방패":16272,"차근차근":16273,"브이":16274,"##휴일":16275,"경전철":16276,"Korea":16277,"129":16278,"위기감":16279,"그르":16280,"데려다":16281,"선인":16282,"슈즈":16283,"패드":16284,"딜러":16285,"죄책감":16286,"하이트":16287,"##십니다":16288,"그리스도교":16289,"전가":16290,"##뿌리":16291,"배심":16292,"기내":16293,"몸값":16294,"공교":16295,"운전사":16296,"##정사":16297,"어버이":16298,"상세히":16299,"발랄":16300,"##ress":16301,"워크아웃":16302,"남학생":16303,"앙상":16304,"완성도":16305,"##창기":16306,"기승":16307,"##지방":16308,"1946":16309,"프레젠테이션":16310,"이정현":16311,"라곤":16312,"우여":16313,"이래서":16314,"연회":16315,"부지런히":16316,"등장인물":16317,"부디":16318,"에버랜드":16319,"##국장":16320,"준다면":16321,"다문화가정":16322,"컨텐츠":16323,"상황실":16324,"##대장":16325,"겸비":16326,"갔었":16327,"절단":16328,"블라디":16329,"능선":16330,"로라":16331,"외계":16332,"투여":16333,"칼날":16334,"##산동":16335,"뇌졸":16336,"트로피":16337,"뒤따라":16338,"산문":16339,"국익":16340,"느닷":16341,"어젯":16342,"퍼트":16343,"복리":16344,"##ase":16345,"선천":16346,"이루어져야":16347,"##더미":16348,"어젯밤":16349,"곡식":16350,"군사력":16351,"##시계":16352,"##체육":16353,"한국사":16354,"소용돌이":16355,"빈틈":16356,"나위":16357,"질러":16358,"몸통":16359,"획정":16360,"빨간색":16361,"가르쳤":16362,"박힌":16363,"경정":16364,"발발":16365,"외야":16366,"아리스토":16367,"SF":16368,"재검토":16369,"큐브":16370,"국제기구":16371,"##용수":16372,"이단":16373,"진행자":16374,"치른다":16375,"살폈":16376,"교인":16377,"이빨":16378,"메타":16379,"눌렀":16380,"훈훈":16381,"연주회":16382,"문화원":16383,"##ere":16384,"양당":16385,"인친":16386,"두들":16387,"각성":16388,"얽매":16389,"거처":16390,"체하":16391,"춘추":16392,"노부":16393,"서리":16394,"꾸리":16395,"토요":16396,"일부분":16397,"트윗":16398,"MM":16399,"##곡절":16400,"관광공사":16401,"피드백":16402,"초선":16403,"백두산":16404,"성악":16405,"음악가":16406,"ml":16407,"그래프":16408,"유례":16409,"도끼":16410,"피했":16411,"계수":16412,"사다리":16413,"해수부":16414,"수락":16415,"생식":16416,"##쿠스":16417,"203":16418,"전반기":16419,"놔두":16420,"플로리":16421,"신경전":16422,"생수":16423,"누군지":16424,"예리":16425,"사옵니다":16426,"잔혹":16427,"이왕":16428,"NLL":16429,"TH":16430,"pl":16431,"재량":16432,"리본":16433,"김신":16434,"힘겹":16435,"당정":16436,"사용료":16437,"김영란":16438,"요런":16439,"당론":16440,"물기":16441,"폴리스":16442,"152":16443,"청정기":16444,"식별":16445,"176":16446,"시니어":16447,"나인":16448,"##더니즘":16449,"초음":16450,"141":16451,"일컬":16452,"카스":16453,"##도전":16454,"일품":16455,"스톤":16456,"##드라마":16457,"따내":16458,"탈세":16459,"로울":16460,"바뀐다":16461,"스포":16462,"으뜸":16463,"표했":16464,"김범":16465,"안식":16466,"bl":16467,"NY":16468,"도로공사":16469,"단체전":16470,"##모직":16471,"신다면":16472,"은평":16473,"앞당겨":16474,"경륜":16475,"동맥":16476,"##pl":16477,"양동":16478,"남경필":16479,"##토스":16480,"개신":16481,"꿈틀":16482,"강타":16483,"치약":16484,"획기적으로":16485,"우여곡절":16486,"연수원":16487,"애호":16488,"LIG":16489,"미네랄":16490,"웃돌":16491,"보령":16492,"운운":16493,"라던":16494,"덕목":16495,"경쾌":16496,"승화":16497,"회사원":16498,"문화재청":16499,"갑상":16500,"강민":16501,"장이":16502,"입당":16503,"정찰":16504,"복부":16505,"코팅":16506,"피디":16507,"신정":16508,"창가":16509,"가부장":16510,"소크라테스":16511,"고공":16512,"##영화":16513,"항생":16514,"라마":16515,"가리킨다":16516,"제일모직":16517,"필기":16518,"간략":16519,"자서":16520,"기관지":16521,"134":16522,"여겨졌":16523,"초원":16524,"프랑크":16525,"카톡":16526,"반죽":16527,"##무늬":16528,"자아냈":16529,"과격":16530,"Ind":16531,"162":16532,"담뱃":16533,"인파":16534,"TO":16535,"입장료":16536,"로이":16537,"올바르":16538,"견본":16539,"한바탕":16540,"모음":16541,"특가":16542,"스며들":16543,"유적지":16544,"이태원":16545,"치사":16546,"수도원":16547,"안양시":16548,"물들":16549,"지켜본":16550,"역도":16551,"##보이":16552,"옮길":16553,"버텨":16554,"##작물":16555,"163":16556,"원한다면":16557,"RO":16558,"내건":16559,"뒤처":16560,"##소스":16561,"박병호":16562,"장세":16563,"뇌졸중":16564,"해져서":16565,"양궁":16566,"##나가":16567,"쓰러":16568,"Gre":16569,"취항":16570,"몰아넣":16571,"전속":16572,"이근":16573,"일터":16574,"나들이":16575,"##아시아":16576,"국보":16577,"뮌헨":16578,"진공":16579,"첨예":16580,"##경찰":16581,"멀티미디어":16582,"동무":16583,"초빙":16584,"제스":16585,"질책":16586,"석학":16587,"빼내":16588,"분별":16589,"분향":16590,"기본법":16591,"올라서":16592,"아닌가요":16593,"플라자":16594,"근력":16595,"##하라":16596,"직급":16597,"밤낮":16598,"치러진":16599,"다가갔":16600,"증축":16601,"##마는":16602,"거주자":16603,"힘껏":16604,"##ax":16605,"프린터":16606,"초창기":16607,"아이파크":16608,"귀여워":16609,"개동":16610,"독보":16611,"이월":16612,"들썩":16613,"무지개":16614,"##out":16615,"웍스":16616,"창피":16617,"피워":16618,"낙엽":16619,"##꼬리":16620,"스와":16621,"스트라":16622,"귀속":16623,"오리지널":16624,"##ade":16625,"김해시":16626,"운하":16627,"전쟁터":16628,"제비":16629,"지킨":16630,"침공":16631,"착륙":16632,"유년":16633,"이토록":16634,"강대국":16635,"직격":16636,"##제당":16637,"스코틀랜드":16638,"##데요":16639,"앞날":16640,"공휴일":16641,"곁들여":16642,"정운":16643,"망고":16644,"플라이":16645,"무소":16646,"지켜봐야":16647,"##초리":16648,"성문":16649,"동선":16650,"##ans":16651,"개점":16652,"가슴살":16653,"146":16654,"##도리":16655,"앞세운":16656,"영지":16657,"결핵":16658,"##민턴":16659,"청송":16660,"밀어붙이":16661,"담그":16662,"두리":16663,"이소":16664,"##ime":16665,"수억":16666,"기자재":16667,"근린":16668,"건넨":16669,"복직":16670,"탄성":16671,"청라":16672,"설계사":16673,"성북":16674,"##ME":16675,"des":16676,"고품질":16677,"어서다":16678,"인척":16679,"으흠":16680,"둬야":16681,"부상자":16682,"발전기":16683,"문어":16684,"선의":16685,"매너":16686,"청양":16687,"제일제당":16688,"크레인":16689,"내국":16690,"대미":16691,"TK":16692,"##회계":16693,"유린":16694,"NGO":16695,"나경":16696,"148":16697,"램프":16698,"중생":16699,"점퍼":16700,"느껴질":16701,"손꼽히":16702,"##악단":16703,"평준":16704,"대출금":16705,"나스":16706,"얼핏":16707,"사교":16708,"함축":16709,"168":16710,"해적":16711,"##둘기":16712,"청나라":16713,"구태":16714,"Par":16715,"헤쳐":16716,"신민":16717,"##런치":16718,"무한도전":16719,"김제":16720,"거래처":16721,"##ublic":16722,"펼쳐졌":16723,"기울여야":16724,"조급":16725,"147":16726,"인질":16727,"DB":16728,"예기":16729,"아니야":16730,"알라":16731,"전폭":16732,"사부":16733,"오크":16734,"학비":16735,"해본다":16736,"아프가":16737,"귀가":16738,"민간인":16739,"가습기":16740,"전립":16741,"업주":16742,"뱃속":16743,"유영":16744,"##노이":16745,"내시경":16746,"제인":16747,"게을":16748,"##ound":16749,"##evel":16750,"복식":16751,"##쿠르":16752,"얽혀":16753,"예절":16754,"천상":16755,"머지":16756,"선율":16757,"포스코건설":16758,"Gl":16759,"분실":16760,"서슴":16761,"장신":16762,"##부족":16763,"별장":16764,"저격":16765,"펌프":16766,"지낼":16767,"143":16768,"채찍":16769,"호프":16770,"방콕":16771,"낙인":16772,"##그릇":16773,"표류":16774,"저승":16775,"가열":16776,"유니버":16777,"이천":16778,"정인":16779,"해커":16780,"귀띔":16781,"모로":16782,"세워야":16783,"아슬":16784,"김현수":16785,"개도":16786,"##젤레스":16787,"갈증":16788,"발광":16789,"흐른":16790,"##리나":16791,"스치":16792,"서늘":16793,"하계":16794,"흐뭇":16795,"반공":16796,"보온":16797,"오죽":16798,"블랙리스트":16799,"##ution":16800,"사투리":16801,"인허가":16802,"프로그래":16803,"이철":16804,"분사":16805,"##을까":16806,"정세균":16807,"ㆍ사":16808,"흉터":16809,"양승":16810,"틀어":16811,"폐수":16812,"관대":16813,"원년":16814,"##도록":16815,"비주":16816,"##돋움":16817,"저탄":16818,"저변":16819,"페루":16820,"소수자":16821,"고단":16822,"쿠리":16823,"발돋움":16824,"##row":16825,"선상":16826,"##BM":16827,"##ild":16828,"떨쳐":16829,"##nal":16830,"아날로그":16831,"아프가니스탄":16832,"다네":16833,"케네":16834,"장동":16835,"탄식":16836,"잇단":16837,"실험실":16838,"수심":16839,"확연히":16840,"##텔레스":16841,"that":16842,"존스":16843,"극동":16844,"비워":16845,"파병":16846,"##바퀴":16847,"ㆍ도":16848,"루시":16849,"그러니":16850,"드루":16851,"저러":16852,"돌릴":16853,"공해":16854,"KG":16855,"der":16856,"공손":16857,"땅값":16858,"압류":16859,"손짓":16860,"Car":16861,"검색어":16862,"MW":16863,"인권위":16864,"우루":16865,"아찔":16866,"전문직":16867,"잭슨":16868,"##예금":16869,"춘향":16870,"호화":16871,"##상가":16872,"레일":16873,"말문":16874,"갑작스런":16875,"고갈":16876,"알아들":16877,"##아아":16878,"131":16879,"몸살":16880,"결사":16881,"공관":16882,"훔치":16883,"권위주의":16884,"인수위":16885,"빠져들":16886,"사정관":16887,"쓰러졌":16888,"비약":16889,"거취":16890,"숙여":16891,"여종":16892,"오마이":16893,"갈까":16894,"다쳤":16895,"매기":16896,"파탄":16897,"산골":16898,"독거":16899,"##제리":16900,"노비":16901,"라니까":16902,"고등어":16903,"거인":16904,"미성년":16905,"아리스토텔레스":16906,"발리":16907,"멍하니":16908,"골절":16909,"들렀":16910,"황홀":16911,"열렬":16912,"망원경":16913,"흑백":16914,"번번":16915,"For":16916,"스킬":16917,"1910":16918,"cat":16919,"할부":16920,"일과":16921,"추월":16922,"정치학":16923,"절도":16924,"데스크":16925,"##게이션":16926,"약혼":16927,"배드민턴":16928,"DC":16929,"친하":16930,"세법":16931,"지으":16932,"##사전":16933,"종래":16934,"가까스로":16935,"내비게이션":16936,"채웠":16937,"계류":16938,"빈민":16939,"##갈이":16940,"김시":16941,"와도":16942,"코르":16943,"##라기":16944,"기록물":16945,"미덕":16946,"내려다":16947,"심도":16948,"회의장":16949,"##오드":16950,"지닌다":16951,"##광역시":16952,"161":16953,"IPTV":16954,"맞출":16955,"처했":16956,"립스틱":16957,"페인트":16958,"at":16959,"충실하":16960,"세습":16961,"학자금":16962,"즐비":16963,"불의":16964,"걸어갔":16965,"독수리":16966,"중소기업청":16967,"et":16968,"줄인":16969,"카피":16970,"베토":16971,"산뜻":16972,"참담":16973,"##tis":16974,"모건":16975,"으면은":16976,"정치가":16977,"채운":16978,"편해":16979,"사색":16980,"섭외":16981,"캐시":16982,"사극":16983,"아낌":16984,"느긋":16985,"신의":16986,"넥타이":16987,"베이커":16988,"토의":16989,"유망주":16990,"뒤진":16991,"CGV":16992,"베일":16993,"제격":16994,"이범":16995,"##생긴":16996,"감초":16997,"니라":16998,"볼게요":16999,"부산항":17000,"뛰쳐":17001,"모노":17002,"현주":17003,"윤종":17004,"금년":17005,"친다":17006,"현행법":17007,"만든다":17008,"비엔날레":17009,"##up":17010,"종식":17011,"Har":17012,"##리에":17013,"어부":17014,"가출":17015,"현대사":17016,"음료수":17017,"강소":17018,"능숙":17019,"걸러":17020,"보고회":17021,"근래":17022,"서랍":17023,"좋아했":17024,"로펌":17025,"새로이":17026,"변할":17027,"기억력":17028,"증여세":17029,"동일시":17030,"스터디":17031,"현저히":17032,"청동":17033,"쌓았":17034,"신항":17035,"수용소":17036,"아득":17037,"펜스":17038,"예정자":17039,"미디":17040,"횡포":17041,"달력":17042,"##활약":17043,"연합군":17044,"##파업":17045,"힘써":17046,"##관리위원회":17047,"고귀":17048,"각하":17049,"조연":17050,"김종인":17051,"안타까움":17052,"달할":17053,"##시험":17054,"낮췄":17055,"김광현":17056,"어법":17057,"주원":17058,"고졸":17059,"근사":17060,"무릅":17061,"또렷":17062,"이방인":17063,"밀크":17064,"다량":17065,"##우트":17066,"에이전":17067,"신대":17068,"1700":17069,"기고":17070,"환한":17071,"거트":17072,"명실상부":17073,"ID":17074,"백혈":17075,"맴돌":17076,"138":17077,"나이다":17078,"이동국":17079,"닛산":17080,"##거진":17081,"cl":17082,"##코스":17083,"베토벤":17084,"현저":17085,"책무":17086,"플랫폼":17087,"부림":17088,"결속":17089,"메밀":17090,"뜻대로":17091,"배당금":17092,"158":17093,"다졌":17094,"무어":17095,"서신":17096,"천도":17097,"개수":17098,"ㅠㅠㅠㅠ":17099,"요기":17100,"셔틀":17101,"노점":17102,"절개":17103,"프린트":17104,"⠀⠀⠀":17105,"길목":17106,"문양":17107,"사수":17108,"##CI":17109,"##영장":17110,"166":17111,"구민":17112,"선거관리위원회":17113,"출루":17114,"현대그룹":17115,"케네디":17116,"##날두":17117,"찾아다니":17118,"스테이지":17119,"정태":17120,"##혁명":17121,"취임식":17122,"깜빡":17123,"어촌":17124,"창녕":17125,"OK":17126,"##꺼풀":17127,"채팅":17128,"연유":17129,"저명":17130,"호날두":17131,"느린":17132,"돌출":17133,"외지":17134,"##지원":17135,"모터스":17136,"모차":17137,"올려다보":17138,"충원":17139,"총파업":17140,"야식":17141,"1949":17142,"선봉":17143,"수순":17144,"무르":17145,"헷갈":17146,"착안":17147,"단의":17148,"최성":17149,"한문":17150,"잡아당":17151,"네오":17152,"맹활약":17153,"시피":17154,"낙선":17155,"폐막":17156,"BN":17157,"눈가":17158,"리프":17159,"수하":17160,"선언문":17161,"International":17162,"##푸스":17163,"멈춘":17164,"수작":17165,"##송이":17166,"절충":17167,"##뉴스":17168,"안착":17169,"스탈린":17170,"유람":17171,"다케":17172,"##만금":17173,"휴지":17174,"기묘":17175,"투사":17176,"사시":17177,"객석":17178,"대청":17179,"서북":17180,"권오":17181,"어처":17182,"교통안전":17183,"뒤집어":17184,"경작":17185,"칠곡":17186,"##께끼":17187,"블룸":17188,"실렸":17189,"테러리":17190,"리니":17191,"느슨":17192,"수수께끼":17193,"저널리즘":17194,"페르시아":17195,"경치":17196,"김소":17197,"둥글":17198,"선후":17199,"##니당":17200,"내과":17201,"142":17202,"박인비":17203,"사계절":17204,"성과급":17205,"노조원":17206,"후방":17207,"엔딩":17208,"면회":17209,"소나":17210,"##라노":17211,"내뿜":17212,"저성장":17213,"아로":17214,"파르":17215,"se":17216,"간디":17217,"다섯째":17218,"BI":17219,"서영":17220,"꺼지":17221,"마는":17222,"##밸리":17223,"조형물":17224,"적중":17225,"고국":17226,"우즈베":17227,"헤겔":17228,"드러낸다":17229,"안산시":17230,"어처구니":17231,"역력":17232,"##누르":17233,"PF":17234,"##TN":17235,"##TC":17236,"아인슈타인":17237,"파기":17238,"문학사":17239,"CI":17240,"PS":17241,"굴욕":17242,"##대사":17243,"##절기":17244,"돌발":17245,"캡슐":17246,"슈퍼스타":17247,"기강":17248,"정오":17249,"주점":17250,"발현":17251,"술자리":17252,"엎드려":17253,"녹여":17254,"양천":17255,"난항":17256,"걸까요":17257,"해부":17258,"부러":17259,"방사성":17260,"김보":17261,"##LPGA":17262,"피라미":17263,"버핏":17264,"LPG":17265,"특목":17266,"우습":17267,"봄날":17268,"오줌":17269,"빼앗기":17270,"띄우":17271,"본국":17272,"SDI":17273,"##ondon":17274,"칼라":17275,"으냐":17276,"보정":17277,"##폐합":17278,"미비":17279,"제네시스":17280,"중성":17281,"스위치":17282,"##무장":17283,"##프로":17284,"대추":17285,"내공":17286,"##오른":17287,"갑작스럽":17288,"메탈":17289,"환전":17290,"변인":17291,"출사":17292,"자가":17293,"연예계":17294,"안치":17295,"목장":17296,"피싱":17297,"옆구리":17298,"정글":17299,"참여연대":17300,"ne":17301,"넘길":17302,"172":17303,"도가":17304,"외할":17305,"커머스":17306,"##지우":17307,"꾸민":17308,"자갈":17309,"스트레칭":17310,"삼키":17311,"혼동":17312,"한판":17313,"동월":17314,"문화예술":17315,"도화":17316,"후작":17317,"빌린":17318,"왔었":17319,"싫어하":17320,"끝냈":17321,"건드":17322,"계엄":17323,"뒤돌":17324,"애완":17325,"저수지":17326,"##봐도":17327,"좋아한다":17328,"초상화":17329,"테크놀로지":17330,"저탄소":17331,"세간":17332,"쇼트트랙":17333,"김도":17334,"도리어":17335,"콘퍼런스":17336,"의결권":17337,"성수":17338,"핸들":17339,"만족감":17340,"폐암":17341,"페미니즘":17342,"너스":17343,"정열":17344,"도교":17345,"##재료":17346,"##앤젤레스":17347,"헤라":17348,"부통령":17349,"##노소":17350,"항생제":17351,"##스피":17352,"성장기":17353,"삭스":17354,"링컨":17355,"모아서":17356,"엘지":17357,"로스앤젤레스":17358,"갈대":17359,"뭡니까":17360,"생동":17361,"낙태":17362,"더미":17363,"신세계백화점":17364,"캐피":17365,"검장":17366,"산전":17367,"산길":17368,"에드워드":17369,"연달":17370,"제소":17371,"대군":17372,"영월":17373,"절묘":17374,"닭고기":17375,"이드":17376,"군자":17377,"꼬치":17378,"황후":17379,"후생":17380,"##폭력":17381,"단조":17382,"멜로디":17383,"밀러":17384,"기념품":17385,"낭독":17386,"돌린":17387,"자긍":17388,"과대":17389,"등교":17390,"##무사":17391,"##떨어진":17392,"꽃잎":17393,"다친":17394,"행안":17395,"##착오":17396,"마일리":17397,"태화":17398,"길가":17399,"김규":17400,"비주류":17401,"ML":17402,"스트라이":17403,"소관":17404,"최하":17405,"휴먼":17406,"지폐":17407,"연필":17408,"##conom":17409,"수십억":17410,"교차로":17411,"시행착오":17412,"지지부진":17413,"나미":17414,"경비원":17415,"쳐서":17416,"혼다":17417,"As":17418,"몸담":17419,"뒷면":17420,"증기":17421,"위크":17422,"기억나":17423,"한테서":17424,"4500":17425,"달성군":17426,"수출액":17427,"흔들림":17428,"매칭":17429,"담아내":17430,"서예":17431,"다진":17432,"트윈":17433,"171":17434,"라이언":17435,"174":17436,"새만금":17437,"수천만":17438,"휴무":17439,"프라임":17440,"성리학":17441,"변비":17442,"플루":17443,"유시":17444,"##호흡":17445,"명장":17446,"이청용":17447,"밑바닥":17448,"극찬":17449,"해인":17450,"굵직":17451,"기껏":17452,"남녀노소":17453,"법대":17454,"550":17455,"불릴":17456,"뛰어든":17457,"맡길":17458,"벗어났":17459,"이쁜":17460,"이여":17461,"떠오른다":17462,"요즈음":17463,"색감":17464,"법치":17465,"폼페이":17466,"##보증":17467,"서울역":17468,"ph":17469,"개년":17470,"외로운":17471,"능률":17472,"##터카":17473,"미스터리":17474,"귀결":17475,"디바":17476,"할애":17477,"##arket":17478,"2021":17479,"##ournal":17480,"시안":17481,"집무실":17482,"냉소":17483,"##식물":17484,"Be":17485,"London":17486,"박명":17487,"황토":17488,"소행":17489,"못해서":17490,"##치아":17491,"저력":17492,"##득이":17493,"네일":17494,"담당관":17495,"변제":17496,"지망":17497,"전업":17498,"배설":17499,"렌터카":17500,"비둘기":17501,"사슬":17502,"계약자":17503,"울주군":17504,"조력":17505,"모차르트":17506,"송구":17507,"기탁":17508,"167":17509,"실화":17510,"토해":17511,"괴로움":17512,"퇴계":17513,"뒤져":17514,"관청":17515,"수줍":17516,"오메":17517,"Or":17518,"촘촘":17519,"휴가철":17520,"슬기":17521,"전지훈련":17522,"열거":17523,"##OD":17524,"서두":17525,"바랄":17526,"통폐합":17527,"##로이":17528,"정신없이":17529,"보안법":17530,"철원":17531,"개연":17532,"는디":17533,"지름길":17534,"갈릴":17535,"노회":17536,"조교":17537,"자긍심":17538,"율법":17539,"##천리":17540,"##배기":17541,"하부":17542,"PK":17543,"젓가락":17544,"일렉":17545,"임시회":17546,"전입":17547,"캐피탈":17548,"##지역":17549,"직격탄":17550,"펴낸":17551,"사이언스":17552,"모텔":17553,"안상수":17554,"CT":17555,"경악":17556,"윤석민":17557,"상체":17558,"미라":17559,"재혼":17560,"급속도":17561,"파편":17562,"패러디":17563,"##ool":17564,"간염":17565,"##태평":17566,"내준":17567,"모성":17568,"##제표":17569,"대내외":17570,"황우":17571,"발렌":17572,"웬일":17573,"식용":17574,"공언":17575,"리얼리즘":17576,"급부상":17577,"쾌감":17578,"브레인":17579,"개업":17580,"캐피털":17581,"##속기":17582,"까다롭":17583,"경복궁":17584,"냠냠":17585,"동질":17586,"계획안":17587,"아드":17588,"재협":17589,"##enti":17590,"Col":17591,"미셸":17592,"이보":17593,"##폭풍":17594,"##더니":17595,"디아":17596,"재무제표":17597,"스텝":17598,"박승":17599,"원사":17600,"난무":17601,"특약":17602,"세세":17603,"고취":17604,"선우":17605,"원더":17606,"동자":17607,"골격":17608,"워너":17609,"개표":17610,"물동":17611,"상추":17612,"시끄럽":17613,"객관적으로":17614,"받쳐":17615,"tr":17616,"다구":17617,"데모":17618,"사업체":17619,"텐데요":17620,"발짝":17621,"##케미":17622,"경멸":17623,"탤런트":17624,"초음파":17625,"ㆍ김":17626,"op":17627,"그리스도인":17628,"반쪽":17629,"1953":17630,"합병증":17631,"##yn":17632,"자서전":17633,"설날":17634,"원도":17635,"##징계":17636,"net":17637,"과반수":17638,"무승부":17639,"수컷":17640,"으셔":17641,"주총":17642,"땅콩":17643,"궁리":17644,"악의":17645,"희소":17646,"후원자":17647,"##퓰리즘":17648,"태어날":17649,"맡긴":17650,"잠식":17651,"포퓰리즘":17652,"하프":17653,"기형":17654,"육신":17655,"처절":17656,"##erson":17657,"Fran":17658,"손녀":17659,"애썼":17660,"##co":17661,"##리그":17662,"역부족":17663,"놓아":17664,"단맛":17665,"알림":17666,"통통":17667,"하구":17668,"권력자":17669,"오타":17670,"야쿠":17671,"통용":17672,"강남역":17673,"청계천":17674,"##클린":17675,"##oul":17676,"연민":17677,"과거사":17678,"탄수":17679,"당겨":17680,"그지없":17681,"식수":17682,"용적":17683,"비시":17684,"떠안":17685,"제약사":17686,"프롤":17687,"지점장":17688,"노령":17689,"애견":17690,"담양":17691,"어때요":17692,"구강":17693,"군림":17694,"진보신":17695,"연꽃":17696,"성형외과":17697,"##실록":17698,"체크카드":17699,"임창":17700,"민요":17701,"고을":17702,"도표":17703,"맹자":17704,"예결":17705,"놀라움":17706,"소이다":17707,"한림":17708,"복면":17709,"언행":17710,"죄수":17711,"##부인과":17712,"러시":17713,"##ative":17714,"가디":17715,"때렸":17716,"북아":17717,"케인":17718,"마일리지":17719,"동이":17720,"풍수":17721,"부호":17722,"캐슬":17723,"호투":17724,"농작물":17725,"원재료":17726,"연평도":17727,"650":17728,"했잖아요":17729,"국과":17730,"우측":17731,"마우스":17732,"단면":17733,"엘리자베스":17734,"재상":17735,"라구요":17736,"총알":17737,"하버드대":17738,"산부인과":17739,"정몽준":17740,"올인":17741,"##그머니":17742,"밝혀진":17743,"하류":17744,"카테고리":17745,"토착":17746,"움츠":17747,"통찰력":17748,"레미":17749,"노린":17750,"한탄":17751,"진다고":17752,"쓰리":17753,"타구":17754,"황폐":17755,"##선거":17756,"유학생":17757,"주심":17758,"조르":17759,"전매":17760,"지주사":17761,"열대":17762,"테두리":17763,"흐느":17764,"자명":17765,"숙원":17766,"방법론":17767,"아쿠아":17768,"와일드":17769,"접점":17770,"로프":17771,"탐지":17772,"##닐라":17773,"장흥":17774,"산화":17775,"슬슬":17776,"바쳐":17777,"감량":17778,"##매기":17779,"동유럽":17780,"콩쿠르":17781,"절친":17782,"마블":17783,"완수":17784,"장정":17785,"##파이어":17786,"이회":17787,"플로리다":17788,"부러워":17789,"신보":17790,"공상":17791,"무의":17792,"장내":17793,"적격":17794,"흐리":17795,"어설":17796,"노사정":17797,"돌아와서":17798,"카를":17799,"두려운":17800,"강압":17801,"거래법":17802,"머지않":17803,"재연":17804,"정할":17805,"타파":17806,"심부름":17807,"트랜스":17808,"작별":17809,"구본":17810,"동독":17811,"자급":17812,"학교장":17813,"부르주아":17814,"파우더":17815,"목욕탕":17816,"공급자":17817,"본체":17818,"진솔":17819,"적시타":17820,"안마":17821,"참된":17822,"총각":17823,"전할":17824,"##ene":17825,"아사히":17826,"제니":17827,"시네마":17828,"신분증":17829,"허리케인":17830,"명료":17831,"캐리":17832,"십상":17833,"##케미칼":17834,"검사장":17835,"아지":17836,"틈틈":17837,"박자":17838,"조직력":17839,"카운트":17840,"##구름":17841,"놀리":17842,"청사진":17843,"기공":17844,"유자":17845,"였으니":17846,"코앞":17847,"파묻":17848,"가져와":17849,"전량":17850,"로그":17851,"야경":17852,"##amp":17853,"립식":17854,"커리어":17855,"##뱅이":17856,"병우":17857,"##cl":17858,"모친":17859,"모태":17860,"나간다는":17861,"##ics":17862,"가뜩":17863,"소비량":17864,"헬로":17865,"시베리아":17866,"굽히":17867,"변동성":17868,"선거인":17869,"부제":17870,"심기":17871,"영암":17872,"전인":17873,"쪽지":17874,"그려져":17875,"아뇨":17876,"즐거워":17877,"으라는":17878,"진위":17879,"##afe":17880,"합친":17881,"변증법":17882,"##중국":17883,"제각각":17884,"자막":17885,"방망이":17886,"블리":17887,"무고":17888,"라이온":17889,"맞섰":17890,"##과이":17891,"경의":17892,"##ai":17893,"거침없이":17894,"군정":17895,"추진력":17896,"처리장":17897,"보탬":17898,"수협":17899,"박민":17900,"정석":17901,"천연가스":17902,"##ization":17903,"파열":17904,"어수":17905,"##사르":17906,"##tics":17907,"드레":17908,"결별":17909,"비친":17910,"분장":17911,"정은":17912,"1956":17913,"인천항":17914,"두툼":17915,"월남":17916,"예언자":17917,"헌혈":17918,"##혜진":17919,"영국인":17920,"All":17921,"##붙이":17922,"##ron":17923,"교육장":17924,"일지라도":17925,"통한다":17926,"조직원":17927,"입성":17928,"지양":17929,"끼친":17930,"사상가":17931,"번번이":17932,"org":17933,"문정":17934,"이오":17935,"주의보":17936,"버려진":17937,"들릴":17938,"무의식":17939,"순천시":17940,"오디":17941,"허니":17942,"열세":17943,"상소":17944,"중용":17945,"펼쳐져":17946,"습기":17947,"전과":17948,"분출":17949,"##ise":17950,"주거지":17951,"가뜩이나":17952,"리튬":17953,"낮춘":17954,"후폭풍":17955,"탄수화물":17956,"플라워":17957,"만능":17958,"어묵":17959,"라미":17960,"아이유":17961,"전자책":17962,"드셔":17963,"희곡":17964,"폐허":17965,"##ins":17966,"꽁꽁":17967,"불로":17968,"엄격히":17969,"장년층":17970,"자아내":17971,"##하우스":17972,"##결승":17973,"중앙선":17974,"남극":17975,"한데요":17976,"라운지":17977,"우즈베키스탄":17978,"카자":17979,"아야지":17980,"프로필":17981,"개신교":17982,"척결":17983,"설거지":17984,"비축":17985,"소량":17986,"떠난다":17987,"정호":17988,"조선족":17989,"##레인지":17990,"사교육비":17991,"편중":17992,"베란다":17993,"에디션":17994,"##tical":17995,"상경":17996,"카운터":17997,"##거스":17998,"피해야":17999,"물의":18000,"##세지":18001,"퇴치":18002,"##AN":18003,"굴뚝":18004,"가성":18005,"##BI":18006,"대림산업":18007,"내구":18008,"날로":18009,"##oug":18010,"치료비":18011,"##조림":18012,"기와":18013,"##ience":18014,"##이스터":18015,"계실":18016,"기체":18017,"넘버":18018,"재협상":18019,"리틀":18020,"직거래":18021,"말린":18022,"완만":18023,"##폐물":18024,"껍데기":18025,"피카":18026,"기보":18027,"독소":18028,"밴쿠버":18029,"감금":18030,"경로당":18031,"##따리":18032,"강서":18033,"기념사업":18034,"전임자":18035,"특목고":18036,"늦춰":18037,"쓰러진":18038,"외교통":18039,"탈취":18040,"터보":18041,"콜롬비아":18042,"##뚜기":18043,"방산":18044,"정상급":18045,"수력":18046,"##ox":18047,"려다가":18048,"인대":18049,"연료전지":18050,"그랑프리":18051,"창백":18052,"나사":18053,"남아프리카":18054,"열연":18055,"대용량":18056,"##며시":18057,"##돼지":18058,"마린":18059,"손아":18060,"추워":18061,"시즈":18062,"금상":18063,"학설":18064,"##스피어":18065,"##배추":18066,"습도":18067,"순응":18068,"전립선":18069,"강추":18070,"과부":18071,"169":18072,"체인지":18073,"파출소":18074,"##익스피어":18075,"부지사":18076,"으리라고":18077,"부츠":18078,"스케치":18079,"맞춰서":18080,"보따리":18081,"어워드":18082,"##리히":18083,"구출":18084,"합하":18085,"셰익스피어":18086,"식기":18087,"선주":18088,"고를":18089,"고층":18090,"속보":18091,"시황":18092,"사들이":18093,"바구니":18094,"##소송":18095,"끌어당":18096,"듀얼":18097,"팔자":18098,"상여금":18099,"##일치":18100,"여주인공":18101,"따라야":18102,"솟구":18103,"생겨서":18104,"파트너십":18105,"내딛":18106,"독재자":18107,"실리콘밸리":18108,"##탱크":18109,"광고주":18110,"영업시간":18111,"중략":18112,"탈환":18113,"무이자":18114,"달서구":18115,"##가요":18116,"작사":18117,"IR":18118,"곰곰":18119,"품안":18120,"파멸":18121,"세차":18122,"리츠":18123,"운전기사":18124,"무릅쓰":18125,"##먹이":18126,"1955":18127,"발기":18128,"유격수":18129,"노벨상":18130,"경건":18131,"황급":18132,"지오":18133,"만년":18134,"발작":18135,"##ital":18136,"가면":18137,"Journal":18138,"구치":18139,"권했":18140,"##ull":18141,"배반":18142,"인내심":18143,"##ina":18144,"나트":18145,"왕따":18146,"으리라는":18147,"파이낸셜":18148,"박현":18149,"헤엄":18150,"딱지":18151,"나뭇잎":18152,"We":18153,"토벌":18154,"나와요":18155,"##기능":18156,"나돌":18157,"울부":18158,"석상":18159,"173":18160,"##이상":18161,"고선":18162,"위암":18163,"수뇌":18164,"NO":18165,"소령":18166,"반역":18167,"산청":18168,"항산":18169,"##gram":18170,"재기":18171,"겠다":18172,"책장":18173,"골문":18174,"다니까":18175,"맞닿":18176,"홈즈":18177,"연골":18178,"셀피":18179,"정기예금":18180,"진척":18181,"번복":18182,"수변":18183,"후면":18184,"스커트":18185,"원상":18186,"트루":18187,"WBC":18188,"터트":18189,"타개":18190,"움직인다":18191,"초미":18192,"Rep":18193,"사은":18194,"계량":18195,"1958":18196,"최민":18197,"육류":18198,"에로":18199,"연세":18200,"김태균":18201,"CR":18202,"복싱":18203,"외투":18204,"집결":18205,"영유":18206,"아닐까요":18207,"##oduc":18208,"##예산":18209,"##ile":18210,"숙였":18211,"시들":18212,"울부짖":18213,"##문고":18214,"수유":18215,"비씨":18216,"요코":18217,"도성":18218,"무얼":18219,"순교":18220,"다퉈":18221,"광기":18222,"뚱뚱":18223,"가옥":18224,"곤혹":18225,"기행":18226,"판다":18227,"디오":18228,"개회":18229,"하루빨리":18230,"지저분":18231,"봉기":18232,"일깨워":18233,"##진구":18234,"선대위":18235,"조그마":18236,"오세훈":18237,"나아지":18238,"사업주":18239,"다분":18240,"해군기지":18241,"안간":18242,"##는지":18243,"내사":18244,"역경":18245,"요미":18246,"두각":18247,"성패":18248,"바흐":18249,"안간힘":18250,"생태계":18251,"##체인":18252,"까치":18253,"위엄":18254,"유심히":18255,"그리워":18256,"꾸짖":18257,"노파":18258,"어려우":18259,"허점":18260,"얘긴":18261,"인심":18262,"이봐":18263,"실형":18264,"어두워":18265,"문성":18266,"204":18267,"넘어설":18268,"완도":18269,"Sm":18270,"끼쳤":18271,"보유자":18272,"미륵":18273,"생후":18274,"피라미드":18275,"깨물":18276,"파란색":18277,"웃겨":18278,"오르내리":18279,"UHD":18280,"두르":18281,"곰팡이":18282,"안토":18283,"쉽사리":18284,"암컷":18285,"제과":18286,"DG":18287,"만인":18288,"반군":18289,"슬리":18290,"마누라":18291,"퀄리티":18292,"##기념":18293,"느닷없이":18294,"##퍼트":18295,"대작":18296,"쌀쌀":18297,"오븐":18298,"전해진다":18299,"금정":18300,"미아":18301,"저작물":18302,"밀어":18303,"퍼즐":18304,"드려야":18305,"안전성":18306,"익산":18307,"예사":18308,"플레이스":18309,"식생활":18310,"황소":18311,"연습장":18312,"페널티":18313,"벙커":18314,"에이즈":18315,"##용품":18316,"유목":18317,"380":18318,"미워하":18319,"수긍":18320,"한입":18321,"참기름":18322,"으로선":18323,"신사업":18324,"가산점":18325,"1947":18326,"오미":18327,"산업체":18328,"힘내":18329,"노폐물":18330,"찾아간":18331,"수식어":18332,"포식":18333,"외주":18334,"TEU":18335,"재외":18336,"옹기":18337,"주택가":18338,"잇몸":18339,"노을":18340,"팬티":18341,"세리":18342,"##춧가루":18343,"배척":18344,"접경":18345,"질수록":18346,"##ric":18347,"분유":18348,"놓쳤":18349,"만전":18350,"##ps":18351,"소정":18352,"논설":18353,"잠든":18354,"다가서":18355,"Rev":18356,"정종":18357,"에듀":18358,"원초":18359,"체형":18360,"##슬라":18361,"계양":18362,"금성":18363,"가져다주":18364,"##마루":18365,"예시":18366,"이어폰":18367,"소중히":18368,"진료비":18369,"잡음":18370,"시간대":18371,"하찮":18372,"어울릴":18373,"원어":18374,"사회생활":18375,"저울":18376,"숭고":18377,"놓였":18378,"물씬":18379,"##공항공사":18380,"부설":18381,"소화기":18382,"연락처":18383,"지크":18384,"그림책":18385,"라오스":18386,"스트리트":18387,"칫솔":18388,"안전망":18389,"KDB":18390,"버금":18391,"##겠다":18392,"##하마":18393,"찾아냈":18394,"끌어올렸":18395,"이력서":18396,"도적":18397,"봄철":18398,"신상품":18399,"##우병":18400,"역사학":18401,"##투자증권":18402,"정약":18403,"풍광":18404,"출입문":18405,"빠짐없이":18406,"굴리":18407,"올드":18408,"몰아주":18409,"##취업":18410,"달릴":18411,"될수록":18412,"심재":18413,"음양":18414,"서태":18415,"스마":18416,"정민":18417,"from":18418,"몽고":18419,"김경수":18420,"##eth":18421,"경진":18422,"통풍":18423,
[...]
